{
    "0": "\u0000",
    "1": "\u0001",
    "2": "\u0002",
    "3": "\u0003",
    "4": "\u0004",
    "5": "\u0005",
    "6": "\u0006",
    "7": "\u0007",
    "8": "\b",
    "9": "\t",
    "10": "\n",
    "11": "\u000b",
    "12": "\f",
    "13": "\r",
    "14": "\u000e",
    "15": "\u000f",
    "16": "\u0010",
    "17": "\u0011",
    "18": "\u0012",
    "19": "\u0013",
    "20": "\u0014",
    "21": "\u0015",
    "22": "\u0016",
    "23": "\u0017",
    "24": "\u0018",
    "25": "\u0019",
    "26": "\u001a",
    "27": "\u001b",
    "28": "\u001c",
    "29": "\u001d",
    "30": "\u001e",
    "31": "\u001f",
    "32": " ",
    "33": "!",
    "34": "\"",
    "35": "#",
    "36": "$",
    "37": "%",
    "38": "&",
    "39": "'",
    "40": "(",
    "41": ")",
    "42": "*",
    "43": "+",
    "44": ",",
    "45": "-",
    "46": ".",
    "47": "/",
    "48": "0",
    "49": "1",
    "50": "2",
    "51": "3",
    "52": "4",
    "53": "5",
    "54": "6",
    "55": "7",
    "56": "8",
    "57": "9",
    "58": ":",
    "59": ";",
    "60": "<",
    "61": "=",
    "62": ">",
    "63": "?",
    "64": "@",
    "65": "A",
    "66": "B",
    "67": "C",
    "68": "D",
    "69": "E",
    "70": "F",
    "71": "G",
    "72": "H",
    "73": "I",
    "74": "J",
    "75": "K",
    "76": "L",
    "77": "M",
    "78": "N",
    "79": "O",
    "80": "P",
    "81": "Q",
    "82": "R",
    "83": "S",
    "84": "T",
    "85": "U",
    "86": "V",
    "87": "W",
    "88": "X",
    "89": "Y",
    "90": "Z",
    "91": "[",
    "92": "\\",
    "93": "]",
    "94": "^",
    "95": "_",
    "96": "`",
    "97": "a",
    "98": "b",
    "99": "c",
    "100": "d",
    "101": "e",
    "102": "f",
    "103": "g",
    "104": "h",
    "105": "i",
    "106": "j",
    "107": "k",
    "108": "l",
    "109": "m",
    "110": "n",
    "111": "o",
    "112": "p",
    "113": "q",
    "114": "r",
    "115": "s",
    "116": "t",
    "117": "u",
    "118": "v",
    "119": "w",
    "120": "x",
    "121": "y",
    "122": "z",
    "123": "{",
    "124": "|",
    "125": "}",
    "126": "~",
    "127": "\u007f",
    "128": "\ufffd",
    "129": "\ufffd",
    "130": "\ufffd",
    "131": "\ufffd",
    "132": "\ufffd",
    "133": "\ufffd",
    "134": "\ufffd",
    "135": "\ufffd",
    "136": "\ufffd",
    "137": "\ufffd",
    "138": "\ufffd",
    "139": "\ufffd",
    "140": "\ufffd",
    "141": "\ufffd",
    "142": "\ufffd",
    "143": "\ufffd",
    "144": "\ufffd",
    "145": "\ufffd",
    "146": "\ufffd",
    "147": "\ufffd",
    "148": "\ufffd",
    "149": "\ufffd",
    "150": "\ufffd",
    "151": "\ufffd",
    "152": "\ufffd",
    "153": "\ufffd",
    "154": "\ufffd",
    "155": "\ufffd",
    "156": "\ufffd",
    "157": "\ufffd",
    "158": "\ufffd",
    "159": "\ufffd",
    "160": "\ufffd",
    "161": "\ufffd",
    "162": "\ufffd",
    "163": "\ufffd",
    "164": "\ufffd",
    "165": "\ufffd",
    "166": "\ufffd",
    "167": "\ufffd",
    "168": "\ufffd",
    "169": "\ufffd",
    "170": "\ufffd",
    "171": "\ufffd",
    "172": "\ufffd",
    "173": "\ufffd",
    "174": "\ufffd",
    "175": "\ufffd",
    "176": "\ufffd",
    "177": "\ufffd",
    "178": "\ufffd",
    "179": "\ufffd",
    "180": "\ufffd",
    "181": "\ufffd",
    "182": "\ufffd",
    "183": "\ufffd",
    "184": "\ufffd",
    "185": "\ufffd",
    "186": "\ufffd",
    "187": "\ufffd",
    "188": "\ufffd",
    "189": "\ufffd",
    "190": "\ufffd",
    "191": "\ufffd",
    "192": "\ufffd",
    "193": "\ufffd",
    "194": "\ufffd",
    "195": "\ufffd",
    "196": "\ufffd",
    "197": "\ufffd",
    "198": "\ufffd",
    "199": "\ufffd",
    "200": "\ufffd",
    "201": "\ufffd",
    "202": "\ufffd",
    "203": "\ufffd",
    "204": "\ufffd",
    "205": "\ufffd",
    "206": "\ufffd",
    "207": "\ufffd",
    "208": "\ufffd",
    "209": "\ufffd",
    "210": "\ufffd",
    "211": "\ufffd",
    "212": "\ufffd",
    "213": "\ufffd",
    "214": "\ufffd",
    "215": "\ufffd",
    "216": "\ufffd",
    "217": "\ufffd",
    "218": "\ufffd",
    "219": "\ufffd",
    "220": "\ufffd",
    "221": "\ufffd",
    "222": "\ufffd",
    "223": "\ufffd",
    "224": "\ufffd",
    "225": "\ufffd",
    "226": "\ufffd",
    "227": "\ufffd",
    "228": "\ufffd",
    "229": "\ufffd",
    "230": "\ufffd",
    "231": "\ufffd",
    "232": "\ufffd",
    "233": "\ufffd",
    "234": "\ufffd",
    "235": "\ufffd",
    "236": "\ufffd",
    "237": "\ufffd",
    "238": "\ufffd",
    "239": "\ufffd",
    "240": "\ufffd",
    "241": "\ufffd",
    "242": "\ufffd",
    "243": "\ufffd",
    "244": "\ufffd",
    "245": "\ufffd",
    "246": "\ufffd",
    "247": "\ufffd",
    "248": "\ufffd",
    "249": "\ufffd",
    "250": "\ufffd",
    "251": "\ufffd",
    "252": "\ufffd",
    "253": "\ufffd",
    "254": "\ufffd",
    "255": "\ufffd",
    "256": "<|endoftext|>",
    "257": " t",
    "258": "he",
    "259": " a",
    "260": " s",
    "261": "nd",
    "262": " w",
    "263": " the",
    "264": "ed",
    "265": " b",
    "266": " to",
    "267": " and",
    "268": " h",
    "269": " f",
    "270": "in",
    "271": " T",
    "272": " wa",
    "273": "re",
    "274": "it",
    "275": "ou",
    "276": " l",
    "277": " d",
    "278": " c",
    "279": " p",
    "280": "ay",
    "281": " m",
    "282": "er",
    "283": " was",
    "284": "om",
    "285": " The",
    "286": " he",
    "287": "is",
    "288": "ar",
    "289": " n",
    "290": "im",
    "291": "on",
    "292": " sa",
    "293": "id",
    "294": "ll",
    "295": " ha",
    "296": " g",
    "297": "at",
    "298": " S",
    "299": "ot",
    "300": "ing",
    "301": "en",
    "302": "an",
    "303": "le",
    "304": "or",
    "305": "end",
    "306": "ir",
    "307": "of",
    "308": "am",
    "309": "et",
    "310": " H",
    "311": " it",
    "312": " th",
    "313": "ig",
    "314": " They",
    "315": "il",
    "316": " in",
    "317": " pl",
    "318": " He",
    "319": " \"",
    "320": "ow",
    "321": "ver",
    "322": "ri",
    "323": "ut",
    "324": " be",
    "325": " said",
    "326": " play",
    "327": " u",
    "328": "ith",
    "329": " day",
    "330": " with",
    "331": "pp",
    "332": "On",
    "333": " y",
    "334": "oo",
    "335": "ked",
    "336": " r",
    "337": " her",
    "338": "ex",
    "339": "ce",
    "340": " I",
    "341": " She",
    "342": "ld",
    "343": " Tim",
    "344": " his",
    "345": " st",
    "346": "ke",
    "347": " big",
    "348": "nt",
    "349": "ck",
    "350": " you",
    "351": "very",
    "352": "ve",
    "353": "st",
    "354": "un",
    "355": " happ",
    "356": " on",
    "357": "riend",
    "358": " friend",
    "359": "all",
    "360": "ily",
    "361": "ext",
    "362": " L",
    "363": " they",
    "364": "oft",
    "365": " we",
    "366": " had",
    "367": " not",
    "368": " li",
    "369": " up",
    "370": "her",
    "371": " want",
    "372": " of",
    "373": "ad",
    "374": "itt",
    "375": "<|",
    "376": "|>",
    "377": "endoft",
    "378": "endoftext",
    "379": "se",
    "380": " B",
    "381": " do",
    "382": " e",
    "383": " happy",
    "384": " very",
    "385": " M",
    "386": "ent",
    "387": "es",
    "388": " that",
    "389": " saw",
    "390": "One",
    "391": "'s",
    "392": "ould",
    "393": " mom",
    "394": " for",
    "395": "ittle",
    "396": " little",
    "397": " sh",
    "398": " she",
    "399": "ch",
    "400": "ime",
    "401": " nam",
    "402": ".\"",
    "403": " time",
    "404": " k",
    "405": " so",
    "406": "ound",
    "407": " there",
    "408": " named",
    "409": " sm",
    "410": " bo",
    "411": " were",
    "412": " Lily",
    "413": " wanted",
    "414": " but",
    "415": "out",
    "416": "The",
    "417": " friends",
    "418": "ved",
    "419": "!\"",
    "420": "ht",
    "421": " Tom",
    "422": "ird",
    "423": "el",
    "424": " ne",
    "425": " bird",
    "426": "al",
    "427": " an",
    "428": "ake",
    "429": " too",
    "430": "ome",
    "431": " It",
    "432": "ug",
    "433": "ide",
    "434": " went",
    "435": " wh",
    "436": " hel",
    "437": "Once",
    "438": " is",
    "439": " all",
    "440": " help",
    "441": "ue",
    "442": " loo",
    "443": " lo",
    "444": "ter",
    "445": " A",
    "446": " upon",
    "447": "ry",
    "448": "ore",
    "449": " fun",
    "450": "get",
    "451": " toy",
    "452": "ill",
    "453": "ind",
    "454": "ame",
    "455": " as",
    "456": " at",
    "457": "ra",
    "458": " j",
    "459": " did",
    "460": "gether",
    "461": "ur",
    "462": " o",
    "463": " re",
    "464": " se",
    "465": " together",
    "466": "ack",
    "467": " cat",
    "468": "ly",
    "469": "ood",
    "470": "ic",
    "471": " tre",
    "472": "ted",
    "473": " dog",
    "474": " could",
    "475": " can",
    "476": " their",
    "477": "ec",
    "478": "ark",
    "479": "ard",
    "480": " gir",
    "481": " played",
    "482": " him",
    "483": " ball",
    "484": "?\"",
    "485": " girl",
    "486": " ro",
    "487": "way",
    "488": " go",
    "489": "my",
    "490": "hed",
    "491": " are",
    "492": " out",
    "493": " le",
    "494": " fr",
    "495": " kn",
    "496": "hen",
    "497": " them",
    "498": "um",
    "499": "'t",
    "500": "ain",
    "501": "ax",
    "502": " sad",
    "503": " boy",
    "504": "ul",
    "505": " tree",
    "506": "other",
    "507": " have",
    "508": " man",
    "509": " cl",
    "510": " loved",
    "511": " looked",
    "512": "oug",
    "513": " found",
    "514": " star",
    "515": " sp",
    "516": " Sue",
    "517": "one",
    "518": "hing",
    "519": " sc",
    "520": " back",
    "521": "own",
    "522": " Max",
    "523": " like",
    "524": "are",
    "525": "ful",
    "526": "side",
    "527": " me",
    "528": " bec",
    "529": " park",
    "530": "ight",
    "531": "ong",
    "532": " car",
    "533": "op",
    "534": "elt",
    "535": " One",
    "536": " liked",
    "537": " would",
    "538": " make",
    "539": " la",
    "540": " felt",
    "541": "round",
    "542": "You",
    "543": " W",
    "544": " fa",
    "545": "ell",
    "546": " see",
    "547": " But",
    "548": "omet",
    "549": " asked",
    "550": "ag",
    "551": " new",
    "552": " no",
    "553": "ice",
    "554": " Sam",
    "555": "ouse",
    "556": " started",
    "557": "ared",
    "558": " came",
    "559": " Ben",
    "560": " al",
    "561": " other",
    "562": "ought",
    "563": "iled",
    "564": " somet",
    "565": " ag",
    "566": " good",
    "567": " small",
    "568": "ss",
    "569": " br",
    "570": " smiled",
    "571": " say",
    "572": "ried",
    "573": "ade",
    "574": "ings",
    "575": "ob",
    "576": "pot",
    "577": " wor",
    "578": " find",
    "579": "ia",
    "580": " away",
    "581": "ty",
    "582": " put",
    "583": " what",
    "584": " ex",
    "585": " something",
    "586": " from",
    "587": " made",
    "588": " thought",
    "589": "ened",
    "590": " home",
    "591": " playing",
    "592": " co",
    "593": "ook",
    "594": " every",
    "595": " wal",
    "596": " mu",
    "597": "ach",
    "598": "uc",
    "599": "arn",
    "600": " Spot",
    "601": " ran",
    "602": "ile",
    "603": " F",
    "604": "ie",
    "605": " J",
    "606": "ave",
    "607": " again",
    "608": " some",
    "609": " laug",
    "610": "dd",
    "611": " house",
    "612": " down",
    "613": " fl",
    "614": " took",
    "615": " scared",
    "616": "ny",
    "617": " pr",
    "618": " toys",
    "619": " learn",
    "620": " You",
    "621": "if",
    "622": " will",
    "623": " box",
    "624": "ick",
    "625": "king",
    "626": "ab",
    "627": " my",
    "628": " around",
    "629": " things",
    "630": " your",
    "631": "ret",
    "632": "oud",
    "633": " bl",
    "634": "uck",
    "635": " when",
    "636": "ish",
    "637": " lived",
    "638": " fe",
    "639": "ep",
    "640": " then",
    "641": " sun",
    "642": ",\"",
    "643": " ch",
    "644": "us",
    "645": "pped",
    "646": " sw",
    "647": " ab",
    "648": " Mia",
    "649": "ank",
    "650": " get",
    "651": "ucy",
    "652": "Tim",
    "653": "ump",
    "654": "Th",
    "655": " lot",
    "656": "ure",
    "657": "ist",
    "658": "oth",
    "659": " tried",
    "660": "ap",
    "661": " know",
    "662": " says",
    "663": " got",
    "664": "ited",
    "665": " who",
    "666": " kne",
    "667": "ust",
    "668": " many",
    "669": " about",
    "670": "Lily",
    "671": " pret",
    "672": " dec",
    "673": " any",
    "674": " red",
    "675": "to",
    "676": " D",
    "677": "as",
    "678": "ive",
    "679": " knew",
    "680": "ace",
    "681": "ous",
    "682": " more",
    "683": "ise",
    "684": " v",
    "685": " care",
    "686": "ally",
    "687": "au",
    "688": "qu",
    "689": " hug",
    "690": " Lucy",
    "691": " learned",
    "692": " water",
    "693": "fter",
    "694": " became",
    "695": " best",
    "696": "ause",
    "697": " op",
    "698": " gre",
    "699": " exc",
    "700": "urp",
    "701": "ways",
    "702": " outside",
    "703": " laughed",
    "704": " po",
    "705": " look",
    "706": " always",
    "707": " pic",
    "708": " decid",
    "709": " show",
    "710": " un",
    "711": "ant",
    "712": " Bob",
    "713": " room",
    "714": "fe",
    "715": " decided",
    "716": " ho",
    "717": " because",
    "718": " into",
    "719": " So",
    "720": " eat",
    "721": "ite",
    "722": " jump",
    "723": " And",
    "724": " pe",
    "725": " both",
    "726": "ers",
    "727": "nder",
    "728": " Mom",
    "729": " dad",
    "730": "They",
    "731": "udd",
    "732": " ke",
    "733": " one",
    "734": "nn",
    "735": " this",
    "736": " excited",
    "737": " nice",
    "738": " E",
    "739": " feel",
    "740": "Tom",
    "741": "Yes",
    "742": " run",
    "743": " long",
    "744": " fast",
    "745": " told",
    "746": " sk",
    "747": " am",
    "748": "urpr",
    "749": "our",
    "750": " inside",
    "751": "ull",
    "752": " tr",
    "753": " surpr",
    "754": " mo",
    "755": " pretty",
    "756": "iny",
    "757": "ink",
    "758": " sor",
    "759": "Wh",
    "760": " take",
    "761": "og",
    "762": " sl",
    "763": " each",
    "764": " gave",
    "765": " much",
    "766": " gra",
    "767": "lew",
    "768": "nna",
    "769": " rock",
    "770": " how",
    "771": " str",
    "772": "ara",
    "773": "imal",
    "774": " animal",
    "775": "ged",
    "776": " than",
    "777": "But",
    "778": "ven",
    "779": "etter",
    "780": " tow",
    "781": " or",
    "782": " C",
    "783": " old",
    "784": "ess",
    "785": " sorry",
    "786": "ge",
    "787": "ised",
    "788": "ro",
    "789": "urt",
    "790": " cle",
    "791": " fish",
    "792": " walked",
    "793": " clo",
    "794": " bear",
    "795": "ase",
    "796": " hand",
    "797": "ast",
    "798": "urn",
    "799": " We",
    "800": " kind",
    "801": " His",
    "802": "here",
    "803": " happened",
    "804": " just",
    "805": " flow",
    "806": " food",
    "807": " list",
    "808": " didn",
    "809": " te",
    "810": " animals",
    "811": " hig",
    "812": " near",
    "813": " wat",
    "814": " ide",
    "815": " try",
    "816": "ched",
    "817": " sky",
    "818": "ine",
    "819": " sn",
    "820": "pl",
    "821": "ving",
    "822": " fi",
    "823": "rom",
    "824": " us",
    "825": " idea",
    "826": " better",
    "827": " Amy",
    "828": " bug",
    "829": " heard",
    "830": "gry",
    "831": " its",
    "832": " tw",
    "833": " let",
    "834": "pec",
    "835": "ate",
    "836": "able",
    "837": "ff",
    "838": " careful",
    "839": " share",
    "840": " en",
    "841": " if",
    "842": "Thank",
    "843": "Mom",
    "844": " fly",
    "845": " stor",
    "846": "ial",
    "847": " flew",
    "848": "more",
    "849": " anymore",
    "850": " Th",
    "851": " spec",
    "852": " special",
    "853": " lots",
    "854": " never",
    "855": " by",
    "856": "lf",
    "857": " com",
    "858": "ream",
    "859": " dan",
    "860": " under",
    "861": " bu",
    "862": " fo",
    "863": " wind",
    "864": " don",
    "865": " tal",
    "866": " clean",
    "867": "ort",
    "868": " gr",
    "869": " love",
    "870": "rm",
    "871": "ber",
    "872": " end",
    "873": " Then",
    "874": "ople",
    "875": " even",
    "876": "\n\n",
    "877": " mag",
    "878": " hard",
    "879": " shiny",
    "880": "udden",
    "881": " fore",
    "882": " over",
    "883": "ion",
    "884": " cake",
    "885": "ak",
    "886": "and",
    "887": " book",
    "888": " col",
    "889": " turn",
    "890": " fam",
    "891": " bad",
    "892": " safe",
    "893": " after",
    "894": "ady",
    "895": " Anna",
    "896": "uddenly",
    "897": " people",
    "898": " proud",
    "899": " Every",
    "900": " surprised",
    "901": "pected",
    "902": "Let",
    "903": " high",
    "904": " cu",
    "905": " hurt",
    "906": " come",
    "907": "imb",
    "908": "arden",
    "909": " door",
    "910": " garden",
    "911": "bb",
    "912": " ground",
    "913": " opened",
    "914": " picked",
    "915": " loud",
    "916": " climb",
    "917": "expected",
    "918": " unexpected",
    "919": " che",
    "920": " gl",
    "921": "ild",
    "922": "As",
    "923": " im",
    "924": " give",
    "925": " way",
    "926": " need",
    "927": "ail",
    "928": "'m",
    "929": " thanked",
    "930": " color",
    "931": " blue",
    "932": " still",
    "933": " ever",
    "934": " hugged",
    "935": " From",
    "936": " call",
    "937": " far",
    "938": "ip",
    "939": " Her",
    "940": " Sara",
    "941": " When",
    "942": "No",
    "943": " off",
    "944": " magic",
    "945": "iz",
    "946": "age",
    "947": "ummy",
    "948": "ough",
    "949": " K",
    "950": " jumped",
    "951": " should",
    "952": " family",
    "953": "ool",
    "954": " kid",
    "955": " par",
    "956": " smile",
    "957": "hes",
    "958": "uff",
    "959": " place",
    "960": "kay",
    "961": " walk",
    "962": " now",
    "963": " In",
    "964": " great",
    "965": "ct",
    "966": "em",
    "967": " qu",
    "968": "les",
    "969": " strong",
    "970": " stay",
    "971": " unt",
    "972": " sto",
    "973": "aut",
    "974": " forest",
    "975": "ture",
    "976": "ane",
    "977": " bra",
    "978": "itty",
    "979": " P",
    "980": " frog",
    "981": " bro",
    "982": " until",
    "983": " beaut",
    "984": "dy",
    "985": " squ",
    "986": " stick",
    "987": " next",
    "988": " boat",
    "989": "lease",
    "990": " happily",
    "991": " listen",
    "992": "aking",
    "993": " kids",
    "994": "ies",
    "995": " tra",
    "996": "iful",
    "997": " beautiful",
    "998": " app",
    "999": "th",
    "1000": " helped",
    "1001": " dra",
    "1002": " showed",
    "1003": " clos",
    "1004": "be",
    "1005": " imp",
    "1006": " story",
    "1007": "unny",
    "1008": "oy",
    "1009": " while",
    "1010": " town",
    "1011": "rel",
    "1012": "oon",
    "1013": "pt",
    "1014": "ress",
    "1015": " picture",
    "1016": " being",
    "1017": "orn",
    "1018": " everyone",
    "1019": " rem",
    "1020": "It",
    "1021": "ary",
    "1022": "ree",
    "1023": " hat",
    "1024": " called",
    "1025": " met",
    "1026": " stopped",
    "1027": " ad",
    "1028": " rain",
    "1029": " game",
    "1030": "Now",
    "1031": "He",
    "1032": " wo",
    "1033": "Can",
    "1034": " angry",
    "1035": "ger",
    "1036": "uffy",
    "1037": " soft",
    "1038": " open",
    "1039": " truck",
    "1040": " keep",
    "1041": "When",
    "1042": " cry",
    "1043": " yummy",
    "1044": " lost",
    "1045": " bed",
    "1046": " Let",
    "1047": " Sally",
    "1048": " warm",
    "1049": "by",
    "1050": "vent",
    "1051": " brave",
    "1052": " mouse",
    "1053": " Wh",
    "1054": " ate",
    "1055": " Kitty",
    "1056": " de",
    "1057": "ished",
    "1058": "fore",
    "1059": " doll",
    "1060": "so",
    "1061": " couldn",
    "1062": " watch",
    "1063": " leave",
    "1064": " also",
    "1065": "dded",
    "1066": " fell",
    "1067": " green",
    "1068": " face",
    "1069": " two",
    "1070": "gan",
    "1071": "iss",
    "1072": " flowers",
    "1073": "bit",
    "1074": "What",
    "1075": " noise",
    "1076": "abbit",
    "1077": "irst",
    "1078": "owl",
    "1079": " where",
    "1080": "az",
    "1081": " R",
    "1082": " soon",
    "1083": "ock",
    "1084": "self",
    "1085": " slide",
    "1086": " rabbit",
    "1087": " hole",
    "1088": "luffy",
    "1089": " before",
    "1090": "irrel",
    "1091": " pus",
    "1092": "ired",
    "1093": " sat",
    "1094": "illy",
    "1095": " hear",
    "1096": " use",
    "1097": "Hi",
    "1098": " pa",
    "1099": " kept",
    "1100": "That",
    "1101": " squirrel",
    "1102": "ear",
    "1103": "Then",
    "1104": "ma",
    "1105": " nodded",
    "1106": " store",
    "1107": " hands",
    "1108": " cook",
    "1109": "Look",
    "1110": " birds",
    "1111": " expl",
    "1112": " going",
    "1113": " funny",
    "1114": " having",
    "1115": "day",
    "1116": "aybe",
    "1117": "uch",
    "1118": " ey",
    "1119": "aug",
    "1120": " catch",
    "1121": "aught",
    "1122": " Can",
    "1123": " Fluffy",
    "1124": "uit",
    "1125": " yell",
    "1126": " think",
    "1127": "leep",
    "1128": " cra",
    "1129": "Ben",
    "1130": " bre",
    "1131": " fix",
    "1132": " fin",
    "1133": " tired",
    "1134": " bunny",
    "1135": " used",
    "1136": " looking",
    "1137": " bus",
    "1138": "ange",
    "1139": "air",
    "1140": "ble",
    "1141": " work",
    "1142": " wr",
    "1143": " our",
    "1144": " pull",
    "1145": "We",
    "1146": "thing",
    "1147": " Now",
    "1148": " wait",
    "1149": " kit",
    "1150": " thr",
    "1151": " sound",
    "1152": " has",
    "1153": " G",
    "1154": " mean",
    "1155": " pond",
    "1156": " beh",
    "1157": " sunny",
    "1158": " jo",
    "1159": "led",
    "1160": " others",
    "1161": " ask",
    "1162": "ng",
    "1163": "chen",
    "1164": " kitchen",
    "1165": " talk",
    "1166": " flo",
    "1167": " remem",
    "1168": " dif",
    "1169": "oral",
    "1170": " pie",
    "1171": "rew",
    "1172": " Jo",
    "1173": " real",
    "1174": " first",
    "1175": " head",
    "1176": " tri",
    "1177": " mommy",
    "1178": " eyes",
    "1179": "ello",
    "1180": " import",
    "1181": "Hello",
    "1182": " dr",
    "1183": " fav",
    "1184": "ft",
    "1185": "ath",
    "1186": "joy",
    "1187": " z",
    "1188": " remember",
    "1189": " right",
    "1190": " flower",
    "1191": " party",
    "1192": " cold",
    "1193": " mess",
    "1194": " Do",
    "1195": " vo",
    "1196": " swe",
    "1197": "ious",
    "1198": " sand",
    "1199": " \u201c",
    "1200": " race",
    "1201": "ac",
    "1202": " curi",
    "1203": "imes",
    "1204": " important",
    "1205": " duck",
    "1206": " con",
    "1207": " moral",
    "1208": " shared",
    "1209": " pain",
    "1210": "zy",
    "1211": "ount",
    "1212": " Jack",
    "1213": " ice",
    "1214": " okay",
    "1215": " advent",
    "1216": " worked",
    "1217": "llow",
    "1218": "At",
    "1219": " enjoy",
    "1220": " dress",
    "1221": " bright",
    "1222": " making",
    "1223": " curious",
    "1224": " own",
    "1225": "ect",
    "1226": " tall",
    "1227": " dir",
    "1228": " hop",
    "1229": "reed",
    "1230": " hid",
    "1231": " favor",
    "1232": " ri",
    "1233": "hn",
    "1234": " sleep",
    "1235": "Wow",
    "1236": " favorite",
    "1237": " thing",
    "1238": " began",
    "1239": " dis",
    "1240": " mon",
    "1241": " bag",
    "1242": " hill",
    "1243": "Don",
    "1244": " cla",
    "1245": " draw",
    "1246": " here",
    "1247": " yard",
    "1248": " tell",
    "1249": " Fin",
    "1250": "ning",
    "1251": "ster",
    "1252": " watched",
    "1253": "que",
    "1254": " follow",
    "1255": " move",
    "1256": " bel",
    "1257": " cut",
    "1258": " night",
    "1259": " agreed",
    "1260": " pick",
    "1261": "co",
    "1262": " block",
    "1263": " hun",
    "1264": "aper",
    "1265": "lly",
    "1266": " stop",
    "1267": " behind",
    "1268": " This",
    "1269": " surprise",
    "1270": "ied",
    "1271": " sho",
    "1272": " hot",
    "1273": "After",
    "1274": " table",
    "1275": " grass",
    "1276": " worry",
    "1277": " dark",
    "1278": " trees",
    "1279": " voice",
    "1280": " walking",
    "1281": "fere",
    "1282": " floor",
    "1283": " farm",
    "1284": " lion",
    "1285": " top",
    "1286": " differe",
    "1287": " please",
    "1288": " rest",
    "1289": " song",
    "1290": " butter",
    "1291": " tail",
    "1292": " sweet",
    "1293": "Max",
    "1294": " shout",
    "1295": " colors",
    "1296": " read",
    "1297": " Dad",
    "1298": " lady",
    "1299": " forg",
    "1300": "isy",
    "1301": " ru",
    "1302": " leaves",
    "1303": " closer",
    "1304": "ign",
    "1305": " cars",
    "1306": " turned",
    "1307": "Why",
    "1308": "aring",
    "1309": " wood",
    "1310": " cried",
    "1311": " tast",
    "1312": " different",
    "1313": " laugh",
    "1314": " del",
    "1315": " piece",
    "1316": "ered",
    "1317": " Mr",
    "1318": " adventure",
    "1319": " roll",
    "1320": " fire",
    "1321": " does",
    "1322": "ike",
    "1323": " cr",
    "1324": " hungry",
    "1325": " hair",
    "1326": " Suddenly",
    "1327": " paper",
    "1328": " feeling",
    "1329": " yellow",
    "1330": " full",
    "1331": "Sue",
    "1332": " touch",
    "1333": " As",
    "1334": "Anna",
    "1335": "Sam",
    "1336": " wet",
    "1337": " friendly",
    "1338": "oom",
    "1339": " prin",
    "1340": "ken",
    "1341": " per",
    "1342": "cked",
    "1343": "ached",
    "1344": " fruit",
    "1345": "ient",
    "1346": " broken",
    "1347": " ready",
    "1348": "bye",
    "1349": "ppy",
    "1350": " prom",
    "1351": " That",
    "1352": " another",
    "1353": " light",
    "1354": " pretend",
    "1355": " dance",
    "1356": " climbed",
    "1357": "where",
    "1358": " listened",
    "1359": "ater",
    "1360": " Bobo",
    "1361": " danc",
    "1362": " running",
    "1363": " only",
    "1364": " sing",
    "1365": " plan",
    "1366": "ting",
    "1367": " gone",
    "1368": " swim",
    "1369": "bbed",
    "1370": "Suddenly",
    "1371": "sh",
    "1372": "ila",
    "1373": "ndma",
    "1374": "Sara",
    "1375": " Jane",
    "1376": " train",
    "1377": " close",
    "1378": "av",
    "1379": "She",
    "1380": " smell",
    "1381": "aby",
    "1382": " amaz",
    "1383": "So",
    "1384": " hold",
    "1385": " blocks",
    "1386": " Timmy",
    "1387": " repl",
    "1388": " All",
    "1389": " butterf",
    "1390": " sees",
    "1391": " reached",
    "1392": " wall",
    "1393": " pu",
    "1394": "oney",
    "1395": "bo",
    "1396": "red",
    "1397": " slow",
    "1398": " helping",
    "1399": " dri",
    "1400": " cream",
    "1401": " cool",
    "1402": " glad",
    "1403": "af",
    "1404": " ant",
    "1405": " less",
    "1406": " swing",
    "1407": " been",
    "1408": " goodbye",
    "1409": " ac",
    "1410": " fight",
    "1411": "ather",
    "1412": "Mia",
    "1413": " pushed",
    "1414": " wonder",
    "1415": "iced",
    "1416": " fair",
    "1417": " must",
    "1418": " hide",
    "1419": " moment",
    "1420": " window",
    "1421": " O",
    "1422": " sit",
    "1423": " balloon",
    "1424": " snow",
    "1425": " child",
    "1426": " explore",
    "1427": " Everyone",
    "1428": " ar",
    "1429": " wished",
    "1430": " baby",
    "1431": " done",
    "1432": " wag",
    "1433": " ste",
    "1434": " buy",
    "1435": " stuck",
    "1436": " thank",
    "1437": " might",
    "1438": "icy",
    "1439": " perf",
    "1440": " name",
    "1441": "ized",
    "1442": " trying",
    "1443": " bit",
    "1444": " coming",
    "1445": " bar",
    "1446": " quick",
    "1447": " fall",
    "1448": " apple",
    "1449": "ash",
    "1450": " scary",
    "1451": " looks",
    "1452": " build",
    "1453": " doing",
    "1454": "aisy",
    "1455": " dream",
    "1456": " dirty",
    "1457": " din",
    "1458": " held",
    "1459": "ames",
    "1460": " books",
    "1461": " mar",
    "1462": "In",
    "1463": " butterfly",
    "1464": " left",
    "1465": "ins",
    "1466": " shouted",
    "1467": " count",
    "1468": " replied",
    "1469": "avy",
    "1470": " reach",
    "1471": " tiny",
    "1472": "ott",
    "1473": " dro",
    "1474": " why",
    "1475": " air",
    "1476": " bran",
    "1477": " land",
    "1478": "key",
    "1479": " three",
    "1480": " pulled",
    "1481": " spl",
    "1482": " grow",
    "1483": " through",
    "1484": " treat",
    "1485": " brother",
    "1486": " wise",
    "1487": " woods",
    "1488": " sure",
    "1489": "'re",
    "1490": " chair",
    "1491": "ix",
    "1492": " mat",
    "1493": " seen",
    "1494": " pink",
    "1495": " clapped",
    "1496": " plant",
    "1497": " owl",
    "1498": "ely",
    "1499": " cup",
    "1500": "ield",
    "1501": " sometimes",
    "1502": "andy",
    "1503": " fill",
    "1504": " cloud",
    "1505": "ask",
    "1506": " swam",
    "1507": "outh",
    "1508": " job",
    "1509": " colorful",
    "1510": " remembered",
    "1511": " bigger",
    "1512": " nest",
    "1513": " mouth",
    "1514": "pe",
    "1515": "Okay",
    "1516": " lesson",
    "1517": "ph",
    "1518": "oup",
    "1519": " There",
    "1520": "room",
    "1521": " waved",
    "1522": "art",
    "1523": "uddy",
    "1524": " grabbed",
    "1525": " stayed",
    "1526": "Oh",
    "1527": "This",
    "1528": " join",
    "1529": " clot",
    "1530": " clothes",
    "1531": "ower",
    "1532": " cont",
    "1533": " After",
    "1534": " waited",
    "1535": " quickly",
    "1536": "cle",
    "1537": " win",
    "1538": " word",
    "1539": " broke",
    "1540": "ucky",
    "1541": " games",
    "1542": " cast",
    "1543": " blew",
    "1544": " gent",
    "1545": " Mommy",
    "1546": " enjoyed",
    "1547": " noticed",
    "1548": "Jo",
    "1549": "ries",
    "1550": " set",
    "1551": " paint",
    "1552": " likes",
    "1553": " pictures",
    "1554": "ton",
    "1555": "de",
    "1556": " sea",
    "1557": " heavy",
    "1558": " mus",
    "1559": " alone",
    "1560": " gif",
    "1561": " anything",
    "1562": " spot",
    "1563": " miss",
    "1564": " hopped",
    "1565": "ation",
    "1566": " world",
    "1567": " turns",
    "1568": " year",
    "1569": "der",
    "1570": " bott",
    "1571": " pat",
    "1572": " pot",
    "1573": "orm",
    "1574": " pen",
    "1575": "lc",
    "1576": "Her",
    "1577": " mix",
    "1578": " arm",
    "1579": " bike",
    "1580": " tight",
    "1581": " everywhere",
    "1582": " won",
    "1583": "Lucy",
    "1584": " tower",
    "1585": " threw",
    "1586": " himself",
    "1587": " followed",
    "1588": " Buddy",
    "1589": " ride",
    "1590": "man",
    "1591": "less",
    "1592": " ju",
    "1593": " je",
    "1594": "amp",
    "1595": "Bob",
    "1596": "ape",
    "1597": " key",
    "1598": " comp",
    "1599": "row",
    "1600": "\".",
    "1601": " white",
    "1602": "ctor",
    "1603": " wrong",
    "1604": " Daisy",
    "1605": " makes",
    "1606": " What",
    "1607": " break",
    "1608": " black",
    "1609": "arent",
    "1610": "ee",
    "1611": "ner",
    "1612": "Spot",
    "1613": "Do",
    "1614": " deep",
    "1615": "thy",
    "1616": " music",
    "1617": " pol",
    "1618": " delic",
    "1619": "cess",
    "1620": "ued",
    "1621": " forgot",
    "1622": " bee",
    "1623": " parent",
    "1624": " castle",
    "1625": "ves",
    "1626": "olly",
    "1627": " em",
    "1628": "iet",
    "1629": " wear",
    "1630": " hit",
    "1631": " ve",
    "1632": "ister",
    "1633": "oun",
    "1634": " quiet",
    "1635": " round",
    "1636": " stu",
    "1637": " danced",
    "1638": "ance",
    "1639": " vis",
    "1640": " wants",
    "1641": "ully",
    "1642": " leaf",
    "1643": " monster",
    "1644": " nap",
    "1645": " John",
    "1646": "ang",
    "1647": " bowl",
    "1648": "os",
    "1649": "rot",
    "1650": " bor",
    "1651": "ren",
    "1652": " talked",
    "1653": "itten",
    "1654": " dry",
    "1655": " faster",
    "1656": " cookies",
    "1657": " brought",
    "1658": "fully",
    "1659": " leg",
    "1660": "ross",
    "1661": " mum",
    "1662": "zz",
    "1663": " side",
    "1664": "From",
    "1665": "ts",
    "1666": " sign",
    "1667": " Inside",
    "1668": " smart",
    "1669": "cy",
    "1670": " rocks",
    "1671": " someone",
    "1672": "His",
    "1673": " sec",
    "1674": " sharing",
    "1675": " fox",
    "1676": " well",
    "1677": " res",
    "1678": " rel",
    "1679": " happen",
    "1680": " button",
    "1681": " branch",
    "1682": " Lila",
    "1683": " really",
    "1684": " finished",
    "1685": "ards",
    "1686": " dinner",
    "1687": " sister",
    "1688": "ence",
    "1689": " flying",
    "1690": "eddy",
    "1691": " worried",
    "1692": " ele",
    "1693": " contin",
    "1694": " To",
    "1695": " visit",
    "1696": " Maybe",
    "1697": " beach",
    "1698": " que",
    "1699": " secret",
    "1700": " el",
    "1701": " Sarah",
    "1702": " king",
    "1703": "John",
    "1704": "gy",
    "1705": " today",
    "1706": " perfect",
    "1707": " river",
    "1708": " everything",
    "1709": " silly",
    "1710": " Joe",
    "1711": " danger",
    "1712": "ipp",
    "1713": " children",
    "1714": " gu",
    "1715": " Soon",
    "1716": " field",
    "1717": " filled",
    "1718": " fur",
    "1719": " else",
    "1720": " cre",
    "1721": " smiles",
    "1722": " welc",
    "1723": " At",
    "1724": " wish",
    "1725": " Em",
    "1726": " sang",
    "1727": "While",
    "1728": "ons",
    "1729": " gi",
    "1730": "ze",
    "1731": " pudd",
    "1732": " snack",
    "1733": " eating",
    "1734": " realized",
    "1735": " pieces",
    "1736": " promised",
    "1737": "ord",
    "1738": " pig",
    "1739": " free",
    "1740": " continued",
    "1741": " bite",
    "1742": "ead",
    "1743": " parents",
    "1744": " carefully",
    "1745": "itting",
    "1746": " ear",
    "1747": "Just",
    "1748": " spr",
    "1749": " jar",
    "1750": "Maybe",
    "1751": " cow",
    "1752": "Amy",
    "1753": " blank",
    "1754": " drag",
    "1755": "stead",
    "1756": " orange",
    "1757": "ated",
    "1758": " mud",
    "1759": " crying",
    "1760": " blanket",
    "1761": " enough",
    "1762": " rolled",
    "1763": "cket",
    "1764": " soup",
    "1765": " sail",
    "1766": " purp",
    "1767": "imi",
    "1768": " yes",
    "1769": "ale",
    "1770": " drink",
    "1771": " snake",
    "1772": "ses",
    "1773": " boun",
    "1774": " pet",
    "1775": " crab",
    "1776": " laughing",
    "1777": " throw",
    "1778": " fairy",
    "1779": " words",
    "1780": " amazing",
    "1781": " bath",
    "1782": "ich",
    "1783": " purple",
    "1784": " Z",
    "1785": " without",
    "1786": " bottle",
    "1787": "ire",
    "1788": " Billy",
    "1789": " gift",
    "1790": " grandma",
    "1791": "Fin",
    "1792": "used",
    "1793": " past",
    "1794": " money",
    "1795": "iver",
    "1796": "fort",
    "1797": " mail",
    "1798": " Gra",
    "1799": " barked",
    "1800": " wagged",
    "1801": " att",
    "1802": "chool",
    "1803": " monkey",
    "1804": " doctor",
    "1805": "unch",
    "1806": " brown",
    "1807": " moved",
    "1808": "ises",
    "1809": " asks",
    "1810": " getting",
    "1811": " closed",
    "1812": "ined",
    "1813": " morn",
    "1814": " welcome",
    "1815": " candy",
    "1816": " school",
    "1817": " su",
    "1818": " morning",
    "1819": " owner",
    "1820": "gg",
    "1821": " whe",
    "1822": " lon",
    "1823": " mother",
    "1824": " higher",
    "1825": " sitting",
    "1826": ".\u201d",
    "1827": " smo",
    "1828": "!\u201d",
    "1829": " dangerous",
    "1830": " lonely",
    "1831": " Ch",
    "1832": " living",
    "1833": " apples",
    "1834": "ush",
    "1835": " shop",
    "1836": "ased",
    "1837": " strange",
    "1838": "vel",
    "1839": " road",
    "1840": " Tommy",
    "1841": "una",
    "1842": " paw",
    "1843": " ra",
    "1844": "ey",
    "1845": " shoes",
    "1846": " -",
    "1847": " stre",
    "1848": " talking",
    "1849": "althy",
    "1850": " caught",
    "1851": " egg",
    "1852": "me",
    "1853": " pass",
    "1854": "ol",
    "1855": " lake",
    "1856": " runs",
    "1857": " buck",
    "1858": " letter",
    "1859": " wings",
    "1860": " chee",
    "1861": "fish",
    "1862": " mad",
    "1863": " fan",
    "1864": "asket",
    "1865": " basket",
    "1866": "ass",
    "1867": " dragon",
    "1868": "app",
    "1869": "Mommy",
    "1870": "set",
    "1871": "cks",
    "1872": " stone",
    "1873": " thinks",
    "1874": " stand",
    "1875": " delicious",
    "1876": " ce",
    "1877": " nose",
    "1878": " puddle",
    "1879": " tom",
    "1880": " Mimi",
    "1881": " belie",
    "1882": " Bl",
    "1883": " farmer",
    "1884": " same",
    "1885": " years",
    "1886": " teddy",
    "1887": " bat",
    "1888": " poin",
    "1889": "isk",
    "1890": "itch",
    "1891": " mine",
    "1892": " sear",
    "1893": " coat",
    "1894": "ches",
    "1895": "igh",
    "1896": " days",
    "1897": " fit",
    "1898": " start",
    "1899": " gentle",
    "1900": " finally",
    "1901": " whist",
    "1902": " cray",
    "1903": "igg",
    "1904": " scream",
    "1905": " kite",
    "1906": " pill",
    "1907": "phant",
    "1908": "arm",
    "1909": " vill",
    "1910": " cho",
    "1911": "ella",
    "1912": "sw",
    "1913": " tasty",
    "1914": " ph",
    "1915": " ben",
    "1916": " trou",
    "1917": " shell",
    "1918": " herself",
    "1919": " hoped",
    "1920": " answ",
    "1921": " wore",
    "1922": " swings",
    "1923": "sy",
    "1924": " belong",
    "1925": "Please",
    "1926": " push",
    "1927": " hor",
    "1928": " bush",
    "1929": "iskers",
    "1930": " carrot",
    "1931": " arri",
    "1932": "aughty",
    "1933": " teach",
    "1934": "bow",
    "1935": "ract",
    "1936": " naughty",
    "1937": " elephant",
    "1938": " dropped",
    "1939": " shap",
    "1940": " coll",
    "1941": "ier",
    "1942": " teac",
    "1943": "emy",
    "1944": " woke",
    "1945": " pile",
    "1946": "ball",
    "1947": " hiding",
    "1948": "sc",
    "1949": " cour",
    "1950": "isa",
    "1951": "erry",
    "1952": " touc",
    "1953": " puppy",
    "1954": " min",
    "1955": "'ll",
    "1956": " seem",
    "1957": "llie",
    "1958": " twins",
    "1959": "ama",
    "1960": " lunch",
    "1961": " bow",
    "1962": " sack",
    "1963": " bring",
    "1964": " pers",
    "1965": " course",
    "1966": " cheered",
    "1967": " shapes",
    "1968": " Jen",
    "1969": " grew",
    "1970": "fused",
    "1971": " rope",
    "1972": " village",
    "1973": "irth",
    "1974": "irthday",
    "1975": " juice",
    "1976": "ipped",
    "1977": " rainbow",
    "1978": "OK",
    "1979": " shook",
    "1980": "Jack",
    "1981": " spoon",
    "1982": " bench",
    "1983": " street",
    "1984": " fence",
    "1985": " cute",
    "1986": " Fred",
    "1987": " rob",
    "1988": " nut",
    "1989": " cheese",
    "1990": " prob",
    "1991": " touched",
    "1992": "idge",
    "1993": "col",
    "1994": " joy",
    "1995": " Whiskers",
    "1996": " arrived",
    "1997": " seed",
    "1998": " war",
    "1999": " teacher",
    "2000": " corn",
    "2001": "Good",
    "2002": " able",
    "2003": " bell",
    "2004": " forever",
    "2005": " few",
    "2006": " carry",
    "2007": " most",
    "2008": " plane",
    "2009": " Blue",
    "2010": " pre",
    "2011": " eas",
    "2012": "lem",
    "2013": " sounds",
    "2014": "lla",
    "2015": " des",
    "2016": " spo",
    "2017": " problem",
    "2018": " birthday",
    "2019": " power",
    "2020": "umb",
    "2021": "br",
    "2022": "\n ",
    "2023": " bugs",
    "2024": "ilk",
    "2025": " wonderful",
    "2026": " dolls",
    "2027": " busy",
    "2028": "ato",
    "2029": "irp",
    "2030": "eb",
    "2031": " wra",
    "2032": " promise",
    "2033": " Thank",
    "2034": " feels",
    "2035": "ian",
    "2036": " Emma",
    "2037": "eter",
    "2038": " bread",
    "2039": " neck",
    "2040": "Finally",
    "2041": " milk",
    "2042": " robot",
    "2043": " rec",
    "2044": " shy",
    "2045": "ountain",
    "2046": " kiss",
    "2047": "irt",
    "2048": " cave",
    "2049": " band",
    "2050": " heart",
    "2051": " pocket",
    "2052": "ub",
    "2053": " helpful",
    "2054": "gly",
    "2055": " slowly",
    "2056": " believe",
    "2057": " shake",
    "2058": "umpy",
    "2059": "eared",
    "2060": " patient",
    "2061": " pop",
    "2062": "arp",
    "2063": " ob",
    "2064": " live",
    "2065": " storm",
    "2066": " holding",
    "2067": " ugly",
    "2068": " towards",
    "2069": " upset",
    "2070": " inc",
    "2071": " turt",
    "2072": "adow",
    "2073": " cover",
    "2074": " kitten",
    "2075": "ost",
    "2076": " Remy",
    "2077": " sharp",
    "2078": " stories",
    "2079": " disapp",
    "2080": " honey",
    "2081": " Bella",
    "2082": "ove",
    "2083": "read",
    "2084": " noises",
    "2085": " Le",
    "2086": " balls",
    "2087": " cir",
    "2088": " spark",
    "2089": " gray",
    "2090": " dist",
    "2091": " dirt",
    "2092": "oggy",
    "2093": " late",
    "2094": " driver",
    "2095": " seat",
    "2096": " bucket",
    "2097": " meet",
    "2098": " young",
    "2099": " amazed",
    "2100": " turtle",
    "2101": "alm",
    "2102": " spid",
    "2103": " treats",
    "2104": " magical",
    "2105": "unt",
    "2106": "ator",
    "2107": " glow",
    "2108": " shr",
    "2109": " seek",
    "2110": " zoom",
    "2111": " lem",
    "2112": " sandw",
    "2113": "fortable",
    "2114": "umber",
    "2115": " trip",
    "2116": " mist",
    "2117": "ourn",
    "2118": " splas",
    "2119": " mark",
    "2120": " journ",
    "2121": " fold",
    "2122": " mach",
    "2123": " puzz",
    "2124": " horse",
    "2125": " organ",
    "2126": " wild",
    "2127": " princess",
    "2128": "pping",
    "2129": "oose",
    "2130": " cookie",
    "2131": "Sure",
    "2132": "ens",
    "2133": "board",
    "2134": " hugs",
    "2135": " Mark",
    "2136": " taking",
    "2137": "ung",
    "2138": " wheel",
    "2139": " cloth",
    "2140": " Lisa",
    "2141": " sug",
    "2142": " instead",
    "2143": " bubb",
    "2144": " string",
    "2145": " net",
    "2146": " drove",
    "2147": "iling",
    "2148": " rude",
    "2149": " huge",
    "2150": " Jim",
    "2151": " coin",
    "2152": " stars",
    "2153": " fighting",
    "2154": "Be",
    "2155": " spicy",
    "2156": " lucky",
    "2157": "Of",
    "2158": " craw",
    "2159": "Hey",
    "2160": " bone",
    "2161": " Grandma",
    "2162": "ors",
    "2163": "not",
    "2164": " ca",
    "2165": "pper",
    "2166": " forget",
    "2167": "up",
    "2168": " di",
    "2169": "aur",
    "2170": " sal",
    "2171": " Finally",
    "2172": " cannot",
    "2173": " whistle",
    "2174": " part",
    "2175": " sick",
    "2176": " path",
    "2177": " spider",
    "2178": " wide",
    "2179": "Lila",
    "2180": " foot",
    "2181": " snowman",
    "2182": " life",
    "2183": " songs",
    "2184": " pillow",
    "2185": "ize",
    "2186": " Just",
    "2187": " cou",
    "2188": "Later",
    "2189": " suc",
    "2190": " Ann",
    "2191": " fixed",
    "2192": " giant",
    "2193": "ling",
    "2194": "oph",
    "2195": "rill",
    "2196": "ert",
    "2197": " nod",
    "2198": " boss",
    "2199": " comes",
    "2200": " last",
    "2201": " joke",
    "2202": " moon",
    "2203": " taste",
    "2204": "den",
    "2205": " machine",
    "2206": " grumpy",
    "2207": " wave",
    "2208": " drive",
    "2209": " ash",
    "2210": " grab",
    "2211": " ser",
    "2212": " peace",
    "2213": "lower",
    "2214": " daddy",
    "2215": " On",
    "2216": " Leo",
    "2217": "ery",
    "2218": " sel",
    "2219": " shelf",
    "2220": " hidden",
    "2221": " inv",
    "2222": " suddenly",
    "2223": " wasn",
    "2224": " write",
    "2225": " landed",
    "2226": " confused",
    "2227": " change",
    "2228": " worm",
    "2229": "oop",
    "2230": " chased",
    "2231": " fruits",
    "2232": " sour",
    "2233": " myster",
    "2234": " bark",
    "2235": " rad",
    "2236": "ular",
    "2237": " smooth",
    "2238": "ity",
    "2239": " Come",
    "2240": " adventures",
    "2241": " val",
    "2242": " stepped",
    "2243": "ope",
    "2244": " oven",
    "2245": " takes",
    "2246": " missed",
    "2247": " selfish",
    "2248": "kin",
    "2249": " sheep",
    "2250": " messy",
    "2251": " across",
    "2252": "To",
    "2253": " exp",
    "2254": " later",
    "2255": "elly",
    "2256": "ife",
    "2257": " N",
    "2258": " ent",
    "2259": " sticks",
    "2260": " tie",
    "2261": "ever",
    "2262": " Luna",
    "2263": " bought",
    "2264": " step",
    "2265": "St",
    "2266": " drew",
    "2267": " tea",
    "2268": "pect",
    "2269": "irpy",
    "2270": "box",
    "2271": "?\u201d",
    "2272": " wash",
    "2273": " lay",
    "2274": " pour",
    "2275": " beak",
    "2276": "ose",
    "2277": " jog",
    "2278": " grate",
    "2279": " ducks",
    "2280": " legs",
    "2281": "ugg",
    "2282": " spe",
    "2283": " fil",
    "2284": " Bu",
    "2285": " emp",
    "2286": "mer",
    "2287": " hope",
    "2288": " empty",
    "2289": " slid",
    "2290": " feather",
    "2291": " sleepy",
    "2292": " drum",
    "2293": "amed",
    "2294": "ars",
    "2295": "eth",
    "2296": " pan",
    "2297": " zoo",
    "2298": " phone",
    "2299": " grateful",
    "2300": " fing",
    "2301": " lemon",
    "2302": "let",
    "2303": " Cat",
    "2304": " clever",
    "2305": " Molly",
    "2306": " smelly",
    "2307": " splash",
    "2308": " Jill",
    "2309": " save",
    "2310": " chick",
    "2311": " calm",
    "2312": " med",
    "2313": " watching",
    "2314": "Soon",
    "2315": "ible",
    "2316": "izzy",
    "2317": "izz",
    "2318": " plate",
    "2319": " ign",
    "2320": " clouds",
    "2321": " line",
    "2322": "stion",
    "2323": " faces",
    "2324": "yard",
    "2325": " ba",
    "2326": " act",
    "2327": " lift",
    "2328": " though",
    "2329": " wolf",
    "2330": " backyard",
    "2331": "wel",
    "2332": " seemed",
    "2333": " dogs",
    "2334": " spray",
    "2335": "Come",
    "2336": " prot",
    "2337": " whole",
    "2338": " mot",
    "2339": " fancy",
    "2340": " Daddy",
    "2341": " arms",
    "2342": " puzzle",
    "2343": " healthy",
    "2344": " supp",
    "2345": "ward",
    "2346": " finish",
    "2347": "erly",
    "2348": " along",
    "2349": "llo",
    "2350": " rocket",
    "2351": "dge",
    "2352": " easy",
    "2353": " jewel",
    "2354": " pract",
    "2355": " jelly",
    "2356": " Chirpy",
    "2357": " imag",
    "2358": " tid",
    "2359": " question",
    "2360": " fake",
    "2361": "ont",
    "2362": " crayons",
    "2363": " wondered",
    "2364": " maybe",
    "2365": " scar",
    "2366": " ship",
    "2367": " nothing",
    "2368": "onest",
    "2369": " Be",
    "2370": " emb",
    "2371": "iger",
    "2372": " pool",
    "2373": " longer",
    "2374": " anyone",
    "2375": " Jerry",
    "2376": " spin",
    "2377": "ually",
    "2378": " front",
    "2379": " working",
    "2380": " explain",
    "2381": " meas",
    "2382": " gives",
    "2383": "irr",
    "2384": " pack",
    "2385": " such",
    "2386": " Bunny",
    "2387": " creat",
    "2388": "ocked",
    "2389": " bossy",
    "2390": " Doggy",
    "2391": " trouble",
    "2392": " smelled",
    "2393": " saved",
    "2394": " ring",
    "2395": "rass",
    "2396": " neigh",
    "2397": "arrass",
    "2398": " honest",
    "2399": "arge",
    "2400": " av",
    "2401": " embarrass",
    "2402": " van",
    "2403": " forgive",
    "2404": " tidy",
    "2405": " weak",
    "2406": "urse",
    "2407": " puts",
    "2408": "unk",
    "2409": " kick",
    "2410": " shirt",
    "2411": " With",
    "2412": " mind",
    "2413": " Ollie",
    "2414": " neighb",
    "2415": " plants",
    "2416": " int",
    "2417": " sol",
    "2418": " Momo",
    "2419": " gently",
    "2420": " cozy",
    "2421": "orrow",
    "2422": "ming",
    "2423": " explor",
    "2424": " mistake",
    "2425": " yog",
    "2426": "oc",
    "2427": "oomy",
    "2428": " pointed",
    "2429": " lad",
    "2430": " af",
    "2431": " stood",
    "2432": "ork",
    "2433": " onto",
    "2434": "sp",
    "2435": " jumping",
    "2436": " waiting",
    "2437": " prince",
    "2438": " lock",
    "2439": " cross",
    "2440": " cheer",
    "2441": " queen",
    "2442": " Why",
    "2443": " Mary",
    "2444": " pin",
    "2445": "we",
    "2446": " wing",
    "2447": "ones",
    "2448": " large",
    "2449": " lovely",
    "2450": "ult",
    "2451": " sur",
    "2452": "And",
    "2453": " deer",
    "2454": " chew",
    "2455": " couch",
    "2456": " bal",
    "2457": " ret",
    "2458": " stret",
    "2459": "aughter",
    "2460": " Their",
    "2461": "era",
    "2462": " places",
    "2463": " My",
    "2464": " ladder",
    "2465": " return",
    "2466": "raid",
    "2467": " ants",
    "2468": " dish",
    "2469": " afraid",
    "2470": " cleaned",
    "2471": " tomorrow",
    "2472": " building",
    "2473": " sandwich",
    "2474": " person",
    "2475": "Sally",
    "2476": "ek",
    "2477": "ned",
    "2478": " pretended",
    "2479": " bounce",
    "2480": " wip",
    "2481": " protect",
    "2482": " match",
    "2483": " rich",
    "2484": "ment",
    "2485": "uce",
    "2486": " pizz",
    "2487": " gather",
    "2488": " search",
    "2489": " boring",
    "2490": "oman",
    "2491": " Somet",
    "2492": " teeth",
    "2493": " hum",
    "2494": "Kitty",
    "2495": "My",
    "2496": "aced",
    "2497": " daughter",
    "2498": " woman",
    "2499": " scarf",
    "2500": " goes",
    "2501": " Together",
    "2502": " law",
    "2503": "iting",
    "2504": " swimming",
    "2505": " furry",
    "2506": " stra",
    "2507": " splashed",
    "2508": " pri",
    "2509": " loves",
    "2510": " true",
    "2511": " screamed",
    "2512": " lazy",
    "2513": " gen",
    "2514": " answer",
    "2515": " eag",
    "2516": " number",
    "2517": " ashamed",
    "2518": " pizza",
    "2519": "aw",
    "2520": " appeared",
    "2521": " fear",
    "2522": " nearby",
    "2523": " powerful",
    "2524": " flag",
    "2525": " hang",
    "2526": "vous",
    "2527": " clown",
    "2528": " St",
    "2529": "gest",
    "2530": " chase",
    "2531": " wand",
    "2532": " motor",
    "2533": " TV",
    "2534": " rub",
    "2535": " success",
    "2536": " chocol",
    "2537": " If",
    "2538": " creative",
    "2539": " trust",
    "2540": " wearing",
    "2541": " noisy",
    "2542": " matter",
    "2543": "pa",
    "2544": " dig",
    "2545": " hello",
    "2546": " ner",
    "2547": " tool",
    "2548": " saf",
    "2549": " Bird",
    "2550": "ado",
    "2551": " nervous",
    "2552": "elp",
    "2553": " test",
    "2554": " smiling",
    "2555": " sold",
    "2556": "icked",
    "2557": "oppy",
    "2558": " circle",
    "2559": "mb",
    "2560": "osaur",
    "2561": " map",
    "2562": " drank",
    "2563": " class",
    "2564": " tries",
    "2565": " chocolate",
    "2566": " Please",
    "2567": " impress",
    "2568": " knee",
    "2569": " gener",
    "2570": " dinosaur",
    "2571": " polite",
    "2572": " mirr",
    "2573": " Bobby",
    "2574": " Tiny",
    "2575": " balloons",
    "2576": " gold",
    "2577": " rare",
    "2578": " cand",
    "2579": "Stop",
    "2580": " Go",
    "2581": " carried",
    "2582": "ensive",
    "2583": " ap",
    "2584": " shadow",
    "2585": " mirror",
    "2586": " Don",
    "2587": " bald",
    "2588": " gun",
    "2589": "ina",
    "2590": " expensive",
    "2591": " mysterious",
    "2592": "iff",
    "2593": " pump",
    "2594": " note",
    "2595": " hero",
    "2596": " march",
    "2597": " har",
    "2598": "arl",
    "2599": " icy",
    "2600": " respect",
    "2601": " weird",
    "2602": " Sp",
    "2603": " snee",
    "2604": " cri",
    "2605": " gate",
    "2606": " soap",
    "2607": "rag",
    "2608": "ute",
    "2609": "issors",
    "2610": " poor",
    "2611": " these",
    "2612": " towel",
    "2613": " whale",
    "2614": " feet",
    "2615": " tape",
    "2616": " dizzy",
    "2617": "itter",
    "2618": " generous",
    "2619": "ndpa",
    "2620": " card",
    "2621": " Benny",
    "2622": " pres",
    "2623": " disco",
    "2624": "Help",
    "2625": "ventually",
    "2626": " lead",
    "2627": " mic",
    "2628": " sque",
    "2629": " embarrassed",
    "2630": " journey",
    "2631": " sugar",
    "2632": "isp",
    "2633": "scape",
    "2634": " boot",
    "2635": " peaceful",
    "2636": " tent",
    "2637": " fat",
    "2638": "est",
    "2639": " scissors",
    "2640": " Bear",
    "2641": " tasted",
    "2642": " yelled",
    "2643": "Tommy",
    "2644": " tick",
    "2645": " mel",
    "2646": " brush",
    "2647": " dancing",
    "2648": " glue",
    "2649": "ness",
    "2650": " hur",
    "2651": " clap",
    "2652": " rough",
    "2653": " bridge",
    "2654": "ote",
    "2655": " decor",
    "2656": " closet",
    "2657": " crown",
    "2658": " stir",
    "2659": "ual",
    "2660": "imp",
    "2661": " print",
    "2662": " Sometimes",
    "2663": "owed",
    "2664": "airs",
    "2665": " How",
    "2666": "ume",
    "2667": " cap",
    "2668": " lamp",
    "2669": " vase",
    "2670": " scare",
    "2671": "lebr",
    "2672": " relie",
    "2673": "lves",
    "2674": "any",
    "2675": " eld",
    "2676": " tele",
    "2677": " celebr",
    "2678": " gigg",
    "2679": " whisp",
    "2680": " log",
    "2681": " blow",
    "2682": " painted",
    "2683": " sco",
    "2684": " Ducky",
    "2685": " pay",
    "2686": "erries",
    "2687": " wis",
    "2688": " berries",
    "2689": " mixed",
    "2690": " spread",
    "2691": " wouldn",
    "2692": " cage",
    "2693": " bake",
    "2694": "rob",
    "2695": "getable",
    "2696": " mountain",
    "2697": " adm",
    "2698": " drawing",
    "2699": " become",
    "2700": " famous",
    "2701": " bean",
    "2702": " knocked",
    "2703": " norm",
    "2704": " vegetable",
    "2705": "asp",
    "2706": " kicked",
    "2707": " collect",
    "2708": "ustr",
    "2709": " shark",
    "2710": " incred",
    "2711": " lose",
    "2712": " normal",
    "2713": "ser",
    "2714": " wrap",
    "2715": "ced",
    "2716": " group",
    "2717": " thick",
    "2718": " 3",
    "2719": " thin",
    "2720": " fine",
    "2721": " glass",
    "2722": " ignor",
    "2723": " clock",
    "2724": " team",
    "2725": " elderly",
    "2726": " clear",
    "2727": " corner",
    "2728": " frustr",
    "2729": " mighty",
    "2730": "robe",
    "2731": " cone",
    "2732": " incredible",
    "2733": " Br",
    "2734": "ighed",
    "2735": "Dad",
    "2736": " moms",
    "2737": " balance",
    "2738": " sock",
    "2739": " space",
    "2740": " jam",
    "2741": "ragile",
    "2742": " fright",
    "2743": " branches",
    "2744": " organized",
    "2745": " roar",
    "2746": "port",
    "2747": " sword",
    "2748": " Mama",
    "2749": "alous",
    "2750": " guess",
    "2751": " fool",
    "2752": " sell",
    "2753": " feed",
    "2754": " Some",
    "2755": " which",
    "2756": " horn",
    "2757": " present",
    "2758": " jealous",
    "2759": " yarn",
    "2760": "ony",
    "2761": "stood",
    "2762": " fragile",
    "2763": " burn",
    "2764": " understood",
    "2765": " stubb",
    "2766": " ter",
    "2767": " mis",
    "2768": " frustrated",
    "2769": "Where",
    "2770": "ray",
    "2771": " hose",
    "2772": "cient",
    "2773": "anged",
    "2774": " spent",
    "2775": " shoe",
    "2776": " taught",
    "2777": " stubborn",
    "2778": " cart",
    "2779": " twist",
    "2780": " chest",
    "2781": " spoiled",
    "2782": " relieved",
    "2783": " ancient",
    "2784": " wake",
    "2785": "ique",
    "2786": " pray",
    "2787": " fier",
    "2788": " fierce",
    "2789": " eggs",
    "2790": " cab",
    "2791": " terri",
    "2792": " pumpkin",
    "2793": " comfortable",
    "2794": " ord",
    "2795": "ym",
    "2796": " frightened",
    "2797": "orry",
    "2798": " toug",
    "2799": " barn",
    "2800": " unique",
    "2801": " measure",
    "2802": " goat",
    "2803": " wagon",
    "2804": " unus",
    "2805": " breath",
    "2806": " foolish",
    "2807": " useful",
    "2808": " exploring",
    "2809": "dle",
    "2810": " straw",
    "2811": " unusual",
    "2812": " dug",
    "2813": " clay",
    "2814": " discover",
    "2815": " tomato",
    "2816": " Pe",
    "2817": " dead",
    "2818": " finding",
    "2819": " police",
    "2820": " wrote",
    "2821": " clum",
    "2822": "lace",
    "2823": " waves",
    "2824": " square",
    "2825": " hears",
    "2826": " cabin",
    "2827": " tells",
    "2828": " necklace",
    "2829": " dull",
    "2830": " clumsy",
    "2831": " tough",
    "2832": " bubbles",
    "2833": " nosy",
    "2834": "kn",
    "2835": " searched",
    "2836": "Together",
    "2837": " washed",
    "2838": " bathroom",
    "2839": " paws",
    "2840": "ond",
    "2841": "bby",
    "2842": "unn",
    "2843": " board",
    "2844": "known",
    "2845": "fic",
    "2846": " asking",
    "2847": " crazy",
    "2848": " thankful",
    "2849": " bitter",
    "2850": " sunf",
    "2851": "yal",
    "2852": " pir",
    "2853": "alk",
    "2854": " diffic",
    "2855": "berry",
    "2856": " rose",
    "2857": "cil",
    "2858": " swan",
    "2859": " bloom",
    "2860": " unknown",
    "2861": " exam",
    "2862": " Ella",
    "2863": " covered",
    "2864": " difficult",
    "2865": " add",
    "2866": " pencil",
    "2867": " ham",
    "2868": " finger",
    "2869": " hoop",
    "2870": " jet",
    "2871": " witch",
    "2872": " drop",
    "2873": "Me",
    "2874": " '",
    "2875": " chicken",
    "2876": " gloomy",
    "2877": " loyal",
    "2878": "apped",
    "2879": "Here",
    "2880": " wealthy",
    "2881": "com",
    "2882": " unl",
    "2883": "als",
    "2884": " cats",
    "2885": " ending",
    "2886": "light",
    "2887": " guit",
    "2888": "bled",
    "2889": "shine",
    "2890": " dove",
    "2891": " joined",
    "2892": "anut",
    "2893": " mov",
    "2894": " terrible",
    "2895": " yours",
    "2896": "iant",
    "2897": " Rex",
    "2898": " salad",
    "2899": " Andy",
    "2900": " nuts",
    "2901": " U",
    "2902": " rat",
    "2903": " tiger",
    "2904": " potato",
    "2905": " mask",
    "2906": "selves",
    "2907": " value",
    "2908": " changed",
    "2909": " moving",
    "2910": " exciting",
    "2911": "ormous",
    "2912": " Many",
    "2913": " body",
    "2914": " Tr",
    "2915": " toast",
    "2916": " record",
    "2917": " cher",
    "2918": " zip",
    "2919": " cheap",
    "2920": " guitar",
    "2921": "irsty",
    "2922": " knowing",
    "2923": " adventur",
    "2924": " yourself",
    "2925": " enormous",
    "2926": " hairy",
    "2927": "Every",
    "2928": " shoot",
    "2929": " Brown",
    "2930": " bored",
    "2931": " pepper",
    "2932": " remind",
    "2933": "ory",
    "2934": " acorn",
    "2935": " adventurous",
    "2936": " sunshine",
    "2937": " smaller",
    "2938": "erp",
    "2939": " hats",
    "2940": " stuff",
    "2941": " solve",
    "2942": " Jimmy",
    "2943": " cost",
    "2944": "rilliant",
    "2945": " knife",
    "2946": " snacks",
    "2947": "gust",
    "2948": "land",
    "2949": " nods",
    "2950": " shore",
    "2951": " brilliant",
    "2952": " thirsty",
    "2953": " delicate",
    "2954": " frown",
    "2955": " disgust",
    "2956": " stri",
    "2957": " seeds",
    "2958": " counted",
    "2959": " asleep",
    "2960": "reen",
    "2961": " mailbox",
    "2962": " dough",
    "2963": " trick",
    "2964": "iness",
    "2965": " neighbor",
    "2966": "ungle",
    "2967": " heal",
    "2968": "Who",
    "2969": "live",
    "2970": " stage",
    "2971": " market",
    "2972": "ident",
    "2973": " cube",
    "2974": " dep",
    "2975": " jungle",
    "2976": " stat",
    "2977": " squee",
    "2978": "mbre",
    "2979": " explained",
    "2980": "ates",
    "2981": " umbre",
    "2982": " disgusting",
    "2983": "Jim",
    "2984": "fted",
    "2985": " jolly",
    "2986": "und",
    "2987": " lab",
    "2988": " flash",
    "2989": " fridge",
    "2990": "inal",
    "2991": "pid",
    "2992": " crane",
    "2993": "corn",
    "2994": " suit",
    "2995": "ilt",
    "2996": " perform",
    "2997": " rh",
    "2998": "iddle",
    "2999": " island",
    "3000": " sunflower",
    "3001": " times",
    "3002": " Al",
    "3003": " caterp",
    "3004": " caterpill",
    "3005": " relax",
    "3006": " shiver",
    "3007": " four",
    "3008": "iginal",
    "3009": " harm",
    "3010": " While",
    "3011": "ict",
    "3012": "ying",
    "3013": " stupid",
    "3014": " medic",
    "3015": " Instead",
    "3016": " goose",
    "3017": " cro",
    "3018": " comb",
    "3019": "edient",
    "3020": " Will",
    "3021": " stove",
    "3022": "If",
    "3023": "Are",
    "3024": "Mum",
    "3025": "most",
    "3026": " gem",
    "3027": " batter",
    "3028": " sighed",
    "3029": " vegetables",
    "3030": " stones",
    "3031": "pes",
    "3032": " shine",
    "3033": "How",
    "3034": " medicine",
    "3035": " depend",
    "3036": " Your",
    "3037": " rug",
    "3038": " careless",
    "3039": " original",
    "3040": " stamp",
    "3041": " gar",
    "3042": " cries",
    "3043": "Inside",
    "3044": " carrots",
    "3045": "gu",
    "3046": " scr",
    "3047": " successful",
    "3048": " sauce",
    "3049": " jeep",
    "3050": " popcorn",
    "3051": " meal",
    "3052": " obedient",
    "3053": " almost",
    "3054": " middle",
    "3055": " magn",
    "3056": " study",
    "3057": " fearful",
    "3058": " jack",
    "3059": "met",
    "3060": "inky",
    "3061": "Sorry",
    "3062": " Sammy",
    "3063": " escape",
    "3064": " caterpillar",
    "3065": " serious",
    "3066": " peanut",
    "3067": " bedroom",
    "3068": " eager",
    "3069": "aken",
    "3070": " gets",
    "3071": " parrot",
    "3072": " statue",
    "3073": " helmet",
    "3074": " pebb",
    "3075": " fountain",
    "3076": " No",
    "3077": " ang",
    "3078": " raven",
    "3079": " pasta",
    "3080": " umbrella",
    "3081": " compet",
    "3082": "There",
    "3083": " jacket",
    "3084": " belonged",
    "3085": " dest",
    "3086": " filthy",
    "3087": " design",
    "3088": " borrow",
    "3089": " cam",
    "3090": "erable",
    "3091": " houses",
    "3092": " prize",
    "3093": " hay",
    "3094": " brace",
    "3095": " standing",
    "3096": " miserable",
    "3097": " raced",
    "3098": " taken",
    "3099": " fork",
    "3100": " crayon",
    "3101": " triang",
    "3102": "io",
    "3103": " impressive",
    "3104": " choose",
    "3105": " fig",
    "3106": " tied",
    "3107": " spotted",
    "3108": "iable",
    "3109": " lifted",
    "3110": " slipped",
    "3111": "ours",
    "3112": " tank",
    "3113": " spring",
    "3114": " thoughtful",
    "3115": " dependable",
    "3116": " steal",
    "3117": " garage",
    "3118": "enny",
    "3119": " built",
    "3120": " mush",
    "3121": "ipe",
    "3122": " mole",
    "3123": " crawled",
    "3124": " scale",
    "3125": " boats",
    "3126": " pant",
    "3127": " pian",
    "3128": " hammer",
    "3129": " bottom",
    "3130": "lph",
    "3131": " cheerful",
    "3132": " using",
    "3133": " smoke",
    "3134": " picks",
    "3135": " moder",
    "3136": " shows",
    "3137": "berries",
    "3138": " piano",
    "3139": "rn",
    "3140": " magnet",
    "3141": "dile",
    "3142": "codile",
    "3143": " hurts",
    "3144": "inary",
    "3145": " crack",
    "3146": " eng",
    "3147": " aunt",
    "3148": " melon",
    "3149": " waff",
    "3150": " modern",
    "3151": "ages",
    "3152": " dolph",
    "3153": "unnel",
    "3154": "cream",
    "3155": " tunnel",
    "3156": " arrow",
    "3157": " reliable",
    "3158": " hopping",
    "3159": "oin",
    "3160": " mushroom",
    "3161": " jug",
    "3162": "Timmy",
    "3163": " squash",
    "3164": " gum",
    "3165": " sink",
    "3166": " movie",
    "3167": " tax",
    "3168": " flute",
    "3169": " beet",
    "3170": " lean",
    "3171": "Their",
    "3172": " popular",
    "3173": "iv",
    "3174": "icop",
    "3175": "icopter",
    "3176": " cryst",
    "3177": " ones",
    "3178": " sil",
    "3179": " competit",
    "3180": " helicopter",
    "3181": " needs",
    "3182": "ipop",
    "3183": "llipop",
    "3184": " crocodile",
    "3185": " liz",
    "3186": "Molly",
    "3187": " troubled",
    "3188": " pige",
    "3189": " locked",
    "3190": " tricks",
    "3191": " lollipop",
    "3192": " playful",
    "3193": " humble",
    "3194": " taxi",
    "3195": " kissed",
    "3196": " low",
    "3197": "appy",
    "3198": "comfortable",
    "3199": "amond",
    "3200": " rid",
    "3201": " uncomfortable",
    "3202": "host",
    "3203": " press",
    "3204": "atch",
    "3205": " angel",
    "3206": " wander",
    "3207": "edy",
    "3208": "cles",
    "3209": " grace",
    "3210": " torn",
    "3211": " anx",
    "3212": " wrapped",
    "3213": " muff",
    "3214": " twig",
    "3215": " pants",
    "3216": " helps",
    "3217": " Sn",
    "3218": " diamond",
    "3219": " camera",
    "3220": " disappoin",
    "3221": "atter",
    "3222": " anxious",
    "3223": "oto",
    "3224": " ghost",
    "3225": " ruined",
    "3226": " tears",
    "3227": "cident",
    "3228": " Jenny",
    "3229": "ilty",
    "3230": " quar",
    "3231": "aff",
    "3232": " Even",
    "3233": " fis",
    "3234": " belt",
    "3235": "opl",
    "3236": "eropl",
    "3237": " guilty",
    "3238": " bull",
    "3239": " aeropl",
    "3240": " helpless",
    "3241": " happiness",
    "3242": " lizard",
    "3243": " boys",
    "3244": "cut",
    "3245": " cere",
    "3246": " walks",
    "3247": "cean",
    "3248": " passed",
    "3249": " meant",
    "3250": " ocean",
    "3251": " fluffy",
    "3252": " wire",
    "3253": " nail",
    "3254": " bracelet",
    "3255": " deaf",
    "3256": "zed",
    "3257": " stretch",
    "3258": " candle",
    "3259": " cact",
    "3260": "tt",
    "3261": " beetle",
    "3262": " mop",
    "3263": " harmless",
    "3264": " reg",
    "3265": "umpet",
    "3266": " ordinary",
    "3267": " answered",
    "3268": " cop",
    "3269": " collar",
    "3270": " bees",
    "3271": " tire",
    "3272": " shape",
    "3273": " quarrel",
    "3274": " radio",
    "3275": " flashlight",
    "3276": " crystal",
    "3277": " harder",
    "3278": " poured",
    "3279": " trumpet",
    "3280": " engine",
    "3281": "Mama",
    "3282": " persist",
    "3283": " hunt",
    "3284": " tooth",
    "3285": " cereal",
    "3286": " invited",
    "3287": " comput",
    "3288": " tag",
    "3289": " office",
    "3290": " melt",
    "3291": " charm",
    "3292": " spill",
    "3293": " lit",
    "3294": " scoot",
    "3295": "coa",
    "3296": " comet",
    "3297": " triangle",
    "3298": "ief",
    "3299": " mug",
    "3300": "ube",
    "3301": " yogurt",
    "3302": " spend",
    "3303": " compass",
    "3304": " accident",
    "3305": " shade",
    "3306": "hett",
    "3307": "aghett",
    "3308": "aghetti",
    "3309": " disappointed",
    "3310": " rep",
    "3311": "ushion",
    "3312": " licked",
    "3313": " cactus",
    "3314": " pale",
    "3315": " cushion",
    "3316": " figure",
    "3317": " giving",
    "3318": " regular",
    "3319": " avoc",
    "3320": " sheet",
    "3321": " whispered",
    "3322": "aze",
    "3323": "uth",
    "3324": "ellig",
    "3325": " create",
    "3326": " barber",
    "3327": " intellig",
    "3328": " pipe",
    "3329": " rode",
    "3330": " roof",
    "3331": "Jane",
    "3332": " env",
    "3333": " thread",
    "3334": "ither",
    "3335": " libr",
    "3336": " load",
    "3337": " vi",
    "3338": " gifted",
    "3339": "ccol",
    "3340": " practiced",
    "3341": " delight",
    "3342": "ccoli",
    "3343": " harsh",
    "3344": " pow",
    "3345": "asses",
    "3346": " dust",
    "3347": " True",
    "3348": " bicy",
    "3349": "azz",
    "3350": " spaghetti",
    "3351": " compassion",
    "3352": " sailed",
    "3353": "urkey",
    "3354": "ubby",
    "3355": " forward",
    "3356": " persistent",
    "3357": " mitten",
    "3358": " cocoa",
    "3359": " envel",
    "3360": " questions",
    "3361": " computer",
    "3362": " coo",
    "3363": " feathers",
    "3364": "hip",
    "3365": " speed",
    "3366": " glove",
    "3367": "ging",
    "3368": "Bobo",
    "3369": " rice",
    "3370": " shrimp",
    "3371": " desk",
    "3372": " inse",
    "3373": " stream",
    "3374": " pigeon",
    "3375": " charming",
    "3376": " ears",
    "3377": " carp",
    "3378": "lcan",
    "3379": " raft",
    "3380": " envious",
    "3381": " knot",
    "3382": " turkey",
    "3383": " stronger",
    "3384": "omes",
    "3385": " coins",
    "3386": " tap",
    "3387": "lcano",
    "3388": "weet",
    "3389": " trap",
    "3390": "umbers",
    "3391": " aeroplane",
    "3392": " pro",
    "3393": " trunk",
    "3394": " wheat",
    "3395": " boxes",
    "3396": " carpet",
    "3397": " chubby",
    "3398": " restless",
    "3399": " intelligent",
    "3400": " tube",
    "3401": " spun",
    "3402": " dreams",
    "3403": " friendship",
    "3404": " half",
    "3405": "ulif",
    "3406": "olin",
    "3407": " crawl",
    "3408": " loop",
    "3409": " broccoli",
    "3410": " week",
    "3411": " deliver",
    "3412": "anger",
    "3413": " vide",
    "3414": " volcano",
    "3415": " Jake",
    "3416": " sle",
    "3417": " track",
    "3418": " bri",
    "3419": " acce",
    "3420": " caulif",
    "3421": " vine",
    "3422": "ye",
    "3423": " ticket",
    "3424": " thief",
    "3425": "essie",
    "3426": "cycle",
    "3427": " louder",
    "3428": " insect",
    "3429": " numbers",
    "3430": " yaw",
    "3431": " haircut",
    "3432": " sleeping",
    "3433": " mill",
    "3434": " alert",
    "3435": " eventually",
    "3436": "ision",
    "3437": " excite",
    "3438": " pebble",
    "3439": " attract",
    "3440": " planet",
    "3441": " Today",
    "3442": " univer",
    "3443": "isted",
    "3444": "ulu",
    "3445": " returned",
    "3446": " destro",
    "3447": " graceful",
    "3448": "ital",
    "3449": " happening",
    "3450": " OK",
    "3451": " Emily",
    "3452": " decide",
    "3453": " hosp",
    "3454": " learning",
    "3455": " screen",
    "3456": "rework",
    "3457": " nicely",
    "3458": " leop",
    "3459": " hospital",
    "3460": " cauliflower",
    "3461": " competitive",
    "3462": " poem",
    "3463": " celebrate",
    "3464": " curt",
    "3465": " peach",
    "3466": " soldier",
    "3467": " saus",
    "3468": " parade",
    "3469": "atient",
    "3470": " attractive",
    "3471": " curtain",
    "3472": " base",
    "3473": " dolphin",
    "3474": " violin",
    "3475": " ways",
    "3476": "Go",
    "3477": "ats",
    "3478": " travel",
    "3479": " rod",
    "3480": " ignorant",
    "3481": " wheels",
    "3482": " yach",
    "3483": "ulb",
    "3484": " scatter",
    "3485": " deter",
    "3486": " compassionate",
    "3487": " barrel",
    "3488": " envelope",
    "3489": " bubble",
    "3490": " lying",
    "3491": " firework",
    "3492": " sort",
    "3493": "zzy",
    "3494": " Pipp",
    "3495": " scooter",
    "3496": " determ",
    "3497": " rag",
    "3498": " bicycle",
    "3499": "elery",
    "3500": " thu",
    "3501": " needle",
    "3502": " Fr",
    "3503": " judge",
    "3504": " bulb",
    "3505": " leopard",
    "3506": " tem",
    "3507": " yacht",
    "3508": "ache",
    "3509": " pony",
    "3510": " cricket",
    "3511": " order",
    "3512": " homes",
    "3513": " ador",
    "3514": "tern",
    "3515": " truth",
    "3516": " hook",
    "3517": "dom",
    "3518": " rubbed",
    "3519": " ref",
    "3520": "ete",
    "3521": "igator",
    "3522": " bushes",
    "3523": "Sarah",
    "3524": " uncle",
    "3525": " spell",
    "3526": " grown",
    "3527": " cooked",
    "3528": " adorable",
    "3529": " chalk",
    "3530": " soar",
    "3531": " purse",
    "3532": " skin",
    "3533": " themselves",
    "3534": " impatient",
    "3535": " celery",
    "3536": " tray",
    "3537": "asing",
    "3538": " shells",
    "3539": " pengu",
    "3540": " sniff",
    "3541": " prun",
    "3542": " walls",
    "3543": " seal",
    "3544": " lively",
    "3545": " case",
    "3546": " alligator",
    "3547": " fle",
    "3548": " distant",
    "3549": " radish",
    "3550": " saying",
    "3551": " speak",
    "3552": " motorcycle",
    "3553": " meat",
    "3554": " send",
    "3555": "illa",
    "3556": " forth",
    "3557": " counting",
    "3558": " enth",
    "3559": " bounced",
    "3560": " chain",
    "3561": " cleaning",
    "3562": "ebra",
    "3563": " film",
    "3564": " slept",
    "3565": " pit",
    "3566": " surf",
    "3567": " marry",
    "3568": "usia",
    "3569": " wallet",
    "3570": " enthusia",
    "3571": " metal",
    "3572": "urb",
    "3573": "ebook",
    "3574": " bin",
    "3575": " ed",
    "3576": " notebook",
    "3577": " skip",
    "3578": " wiped",
    "3579": "chair",
    "3580": " biggest",
    "3581": " avocado",
    "3582": " impro",
    "3583": " behave",
    "3584": " destroy",
    "3585": "vator",
    "3586": " bandage",
    "3587": " laughs",
    "3588": " steak",
    "3589": " pattern",
    "3590": " Sh",
    "3591": " elevator",
    "3592": " Buzz",
    "3593": "usie",
    "3594": " dive",
    "3595": " shut",
    "3596": " skipped",
    "3597": " unlock",
    "3598": " post",
    "3599": " diary",
    "3600": "dest",
    "3601": "ject",
    "3602": "ground",
    "3603": " zebra",
    "3604": " bags",
    "3605": " armchair",
    "3606": "aged",
    "3607": " disturb",
    "3608": " oy",
    "3609": " pole",
    "3610": " showing",
    "3611": " club",
    "3612": " gathered",
    "3613": " nurse",
    "3614": "bul",
    "3615": " earth",
    "3616": " stranger",
    "3617": " sweater",
    "3618": " jellyfish",
    "3619": " screw",
    "3620": " temp",
    "3621": " Poppy",
    "3622": " mixer",
    "3623": "Give",
    "3624": " skull",
    "3625": " lime",
    "3626": " bump",
    "3627": "bulance",
    "3628": " ambulance",
    "3629": "nam",
    "3630": " father",
    "3631": " journal",
    "3632": "Gra",
    "3633": "ention",
    "3634": " loudly",
    "3635": "ito",
    "3636": " folder",
    "3637": " Bet",
    "3638": " shield",
    "3639": " Lulu",
    "3640": " Peter",
    "3641": " library",
    "3642": " buttons",
    "3643": " playground",
    "3644": " trucks",
    "3645": " ink",
    "3646": " lights",
    "3647": " tummy",
    "3648": " city",
    "3649": " decorate",
    "3650": " station",
    "3651": "irit",
    "3652": " falls",
    "3653": "quito",
    "3654": " Polly",
    "3655": "Billy",
    "3656": " Fo",
    "3657": " fu",
    "3658": "nger",
    "3659": " Birdy",
    "3660": "lies",
    "3661": " herb",
    "3662": " ornam",
    "3663": " ornament",
    "3664": " modest",
    "3665": " guard",
    "3666": " mos",
    "3667": " knows",
    "3668": "ines",
    "3669": " float",
    "3670": " cord",
    "3671": " polish",
    "3672": " marble",
    "3673": "oby",
    "3674": " mosquito",
    "3675": "umbled",
    "3676": " salt",
    "3677": " attic",
    "3678": " vest",
    "3679": " whenever",
    "3680": "ctop",
    "3681": " yet",
    "3682": " resc",
    "3683": " disappeared",
    "3684": " ple",
    "3685": " strawberry",
    "3686": " once",
    "3687": " Mum",
    "3688": " kay",
    "3689": " brothers",
    "3690": " itch",
    "3691": " pirate",
    "3692": " football",
    "3693": " split",
    "3694": "kele",
    "3695": "keleton",
    "3696": " hipp",
    "3697": " aut",
    "3698": " led",
    "3699": "ctopus",
    "3700": " driving",
    "3701": "uring",
    "3702": " cable",
    "3703": " support",
    "3704": " calling",
    "3705": " cupboard",
    "3706": "aky",
    "3707": "par",
    "3708": "ushed",
    "3709": " wishes",
    "3710": " complet",
    "3711": " tripped",
    "3712": " root",
    "3713": " kayak",
    "3714": " octopus",
    "3715": "obile",
    "3716": " added",
    "3717": " edge",
    "3718": " mild",
    "3719": "stic",
    "3720": " determined",
    "3721": "?\".",
    "3722": " reading",
    "3723": " coal",
    "3724": "omobile",
    "3725": "Well",
    "3726": " sung",
    "3727": "utes",
    "3728": " stack",
    "3729": " kindness",
    "3730": " automobile",
    "3731": " enthusiastic",
    "3732": " thunder",
    "3733": " sneeze",
    "3734": " carto",
    "3735": " yoga",
    "3736": "inde",
    "3737": " Little",
    "3738": " growl",
    "3739": "htub",
    "3740": " flea",
    "3741": " meadow",
    "3742": " drawer",
    "3743": " bathtub",
    "3744": " ribb",
    "3745": "ophone",
    "3746": " golf",
    "3747": " hall",
    "3748": " means",
    "3749": " skeleton",
    "3750": " math",
    "3751": "la",
    "3752": " veil",
    "3753": " hunter",
    "3754": " flame",
    "3755": " gor",
    "3756": " poke",
    "3757": " enc",
    "3758": " video",
    "3759": " chess",
    "3760": " cups",
    "3761": " troph",
    "3762": " glowing",
    "3763": " matt",
    "3764": " oyster",
    "3765": "work",
    "3766": " penny",
    "3767": " spear",
    "3768": "lasses",
    "3769": " itself",
    "3770": " unp",
    "3771": " drawings",
    "3772": " hippo",
    "3773": " repair",
    "3774": " switch",
    "3775": " sunglasses",
    "3776": " teleph",
    "3777": " costume",
    "3778": " dess",
    "3779": " zipp",
    "3780": ",\u201d",
    "3781": " repe",
    "3782": " muffin",
    "3783": " arg",
    "3784": " pastry",
    "3785": " pun",
    "3786": " rolling",
    "3787": " minutes",
    "3788": " makeup",
    "3789": " packed",
    "3790": "ric",
    "3791": " People",
    "3792": " waffle",
    "3793": "case",
    "3794": " handle",
    "3795": " pear",
    "3796": " maze",
    "3797": " telephone",
    "3798": " pine",
    "3799": "ait",
    "3800": " gear",
    "3801": " hedge",
    "3802": " mattress",
    "3803": " package",
    "3804": "aving",
    "3805": " Miss",
    "3806": " shocked",
    "3807": " trophy",
    "3808": " powder",
    "3809": " knight",
    "3810": " cob",
    "3811": " missile",
    "3812": " frame",
    "3813": " managed",
    "3814": " wife",
    "3815": " ok",
    "3816": " separ",
    "3817": " stairs",
    "3818": "web",
    "3819": " rot",
    "3820": " camp",
    "3821": "rage",
    "3822": "time",
    "3823": "rophone",
    "3824": "urch",
    "3825": " magaz",
    "3826": " colour",
    "3827": " strugg",
    "3828": " grapes",
    "3829": " file",
    "3830": "head",
    "3831": " Tina",
    "3832": " basketball",
    "3833": "Bye",
    "3834": "old",
    "3835": " cobweb",
    "3836": "per",
    "3837": "Re",
    "3838": "Jimmy",
    "3839": " Tweet",
    "3840": "See",
    "3841": " perm",
    "3842": " wool",
    "3843": " Dan",
    "3844": " microphone",
    "3845": "esday",
    "3846": " eye",
    "3847": " leash",
    "3848": " gasp",
    "3849": "iew",
    "3850": "keep",
    "3851": " weep",
    "3852": " barking",
    "3853": " safely",
    "3854": " tear",
    "3855": "ature",
    "3856": " view",
    "3857": " slides",
    "3858": "offe",
    "3859": " steps",
    "3860": "istol",
    "3861": "offee",
    "3862": " staff",
    "3863": " spirit",
    "3864": " task",
    "3865": " giggled",
    "3866": " hoc",
    "3867": " hockey",
    "3868": " vend",
    "3869": " those",
    "3870": " gorilla",
    "3871": "Jill",
    "3872": " cooler",
    "3873": " Rose",
    "3874": "was",
    "3875": " early",
    "3876": " marched",
    "3877": " mint",
    "3878": "rosc",
    "3879": " Look",
    "3880": "washer",
    "3881": " flour",
    "3882": " hotel",
    "3883": "hic",
    "3884": " sailor",
    "3885": " dessert",
    "3886": " photo",
    "3887": "roscope",
    "3888": " vehic",
    "3889": "ilot",
    "3890": " oft",
    "3891": " often",
    "3892": " church",
    "3893": " Pete",
    "3894": " cooking",
    "3895": " five",
    "3896": " sausage",
    "3897": "otter",
    "3898": " ir",
    "3899": " ten",
    "3900": " tools",
    "3901": " medal",
    "3902": "cing",
    "3903": " either",
    "3904": " fireman",
    "3905": "chor",
    "3906": " grandpa",
    "3907": " otter",
    "3908": " baseball",
    "3909": " suggest",
    "3910": " pistol",
    "3911": " pretending",
    "3912": " dishwasher",
    "3913": " organize",
    "3914": " rever",
    "3915": " pee",
    "3916": " vendor",
    "3917": " knock",
    "3918": " sight",
    "3919": " grill",
    "3920": " temple",
    "3921": " battery",
    "3922": " opens",
    "3923": " ow",
    "3924": " realised",
    "3925": " iron",
    "3926": " laser",
    "3927": " sne",
    "3928": " oil",
    "3929": " sandbox",
    "3930": " patch",
    "3931": " hours",
    "3932": " rise",
    "3933": " whip",
    "3934": " remain",
    "3935": "'d",
    "3936": "ctory",
    "3937": " Give",
    "3938": " anchor",
    "3939": " trash",
    "3940": "ense",
    "3941": " short",
    "3942": " Betty",
    "3943": "ney",
    "3944": " rhin",
    "3945": " lotion",
    "3946": " factory",
    "3947": "seum",
    "3948": " may",
    "3949": " ward",
    "3950": "ugged",
    "3951": "Al",
    "3952": " message",
    "3953": " valu",
    "3954": " wardrobe",
    "3955": " cell",
    "3956": " museum",
    "3957": "apers",
    "3958": " ur",
    "3959": "ination",
    "3960": " hanging",
    "3961": "ucet",
    "3962": " Sunny",
    "3963": "ailable",
    "3964": " Zoom",
    "3965": " hive",
    "3966": " towers",
    "3967": "keeper",
    "3968": " blackboard",
    "3969": " mem",
    "3970": "loo",
    "3971": " excitement",
    "3972": " coffee",
    "3973": " pilot",
    "3974": "Fluffy",
    "3975": "ready",
    "3976": " napkin",
    "3977": " penguin",
    "3978": " check",
    "3979": "ately",
    "3980": " reward",
    "3981": " quit",
    "3982": " Pippin",
    "3983": " cane",
    "3984": " picking",
    "3985": "place",
    "3986": "azor",
    "3987": " ig",
    "3988": " Snow",
    "3989": " faucet",
    "3990": " passport",
    "3991": " Rob",
    "3992": " stumbled",
    "3993": " dreamed",
    "3994": " Bessie",
    "3995": " igloo",
    "3996": "aroo",
    "3997": "angaroo",
    "3998": " freez",
    "3999": " juicy",
    "4000": " allowed",
    "4001": "play",
    "4002": "ron",
    "4003": " holds",
    "4004": " already",
    "4005": " available",
    "4006": " sett",
    "4007": " bathe",
    "4008": " tornado",
    "4009": "imney",
    "4010": " fingers",
    "4011": "htray",
    "4012": " hanger",
    "4013": " newsp",
    "4014": " size",
    "4015": " laund",
    "4016": " lend",
    "4017": " chimney",
    "4018": " laundry",
    "4019": " oak",
    "4020": " encou",
    "4021": " fisher",
    "4022": " compl",
    "4023": " kangaroo",
    "4024": " men",
    "4025": " Everywhere",
    "4026": " telling",
    "4027": "Em",
    "4028": " novel",
    "4029": "body",
    "4030": " mummy",
    "4031": " pal",
    "4032": " mule",
    "4033": "ions",
    "4034": " cherries",
    "4035": " notice",
    "4036": " practice",
    "4037": " spilled",
    "4038": " reinde",
    "4039": " complete",
    "4040": " enjoying",
    "4041": " microscope",
    "4042": "arian",
    "4043": "ampoo",
    "4044": " sub",
    "4045": " fireplace",
    "4046": " imagine",
    "4047": "anda",
    "4048": " display",
    "4049": "ocer",
    "4050": " Zip",
    "4051": " magazine",
    "4052": " hurry",
    "4053": " cabinet",
    "4054": " shrink",
    "4055": " ashtray",
    "4056": "Wait",
    "4057": " cows",
    "4058": " Spike",
    "4059": "Joe",
    "4060": "gen",
    "4061": " palace",
    "4062": " improve",
    "4063": " rake",
    "4064": " reindeer",
    "4065": " falling",
    "4066": "aches",
    "4067": "oceros",
    "4068": " skirt",
    "4069": " discovered",
    "4070": " stared",
    "4071": " roared",
    "4072": "aid",
    "4073": " silver",
    "4074": " tub",
    "4075": " trail",
    "4076": "Is",
    "4077": " miner",
    "4078": "ured",
    "4079": " gain",
    "4080": "come",
    "4081": " bill",
    "4082": " fog",
    "4083": "iction",
    "4084": "vision",
    "4085": " ax",
    "4086": "stairs",
    "4087": " hut",
    "4088": "ilet",
    "4089": " happier",
    "4090": " taller",
    "4091": "ictionary",
    "4092": " oats",
    "4093": " fisherman",
    "4094": " object",
    "4095": " por",
    "4096": " valuable",
    "4097": " shampoo",
    "4098": " holes",
    "4099": " offered",
    "4100": " boots",
    "4101": " rhinoceros",
    "4102": " names",
    "4103": " toilet",
    "4104": " climbing",
    "4105": "vice",
    "4106": "Ow",
    "4107": " stretched",
    "4108": " zipper",
    "4109": " television",
    "4110": " listening",
    "4111": " bathrobe",
    "4112": " sym",
    "4113": " jewelry",
    "4114": "alend",
    "4115": " Here",
    "4116": " jokes",
    "4117": " calend",
    "4118": " prov",
    "4119": " stops",
    "4120": " axe",
    "4121": " jumps",
    "4122": " fuel",
    "4123": " sparkly",
    "4124": " perfume",
    "4125": " Susie",
    "4126": "cu",
    "4127": " bury",
    "4128": "bol",
    "4129": "Mummy",
    "4130": " pressed",
    "4131": " Kim",
    "4132": "reek",
    "4133": " rece",
    "4134": " Toby",
    "4135": " neat",
    "4136": " creek",
    "4137": " popped",
    "4138": " opera",
    "4139": " calendar",
    "4140": " snap",
    "4141": " attach",
    "4142": " gasped",
    "4143": " symbol",
    "4144": " tuna",
    "4145": " Mar",
    "4146": " papers",
    "4147": "Mr",
    "4148": " unpack",
    "4149": " resist",
    "4150": " dictionary",
    "4151": " subway",
    "4152": " letters",
    "4153": " freezer",
    "4154": " chose",
    "4155": "zag",
    "4156": " spoke",
    "4157": " anyway",
    "4158": " super",
    "4159": " helper",
    "4160": " porch",
    "4161": "affe",
    "4162": " bikes",
    "4163": " lie",
    "4164": "arry",
    "4165": "iest",
    "4166": "iches",
    "4167": " comfort",
    "4168": " tightly",
    "4169": " shaking",
    "4170": " bookcase",
    "4171": " son",
    "4172": " razor",
    "4173": "aurant",
    "4174": " Are",
    "4175": " sandwiches",
    "4176": " complain",
    "4177": " ext",
    "4178": "igzag",
    "4179": " weigh",
    "4180": " against",
    "4181": " stickers",
    "4182": " restaurant",
    "4183": " newspaper",
    "4184": " blouse",
    "4185": " vehicle",
    "4186": " disag",
    "4187": " nature",
    "4188": " squirrels",
    "4189": " belongs",
    "4190": "ival",
    "4191": "te",
    "4192": " swamp",
    "4193": " butterflies",
    "4194": " gym",
    "4195": "del",
    "4196": " growing",
    "4197": " buckle",
    "4198": "omed",
    "4199": " stirred",
    "4200": " billboard",
    "4201": " mustache",
    "4202": " beep",
    "4203": "xy",
    "4204": " alarm",
    "4205": " fest",
    "4206": " lip",
    "4207": " lightning",
    "4208": " hung",
    "4209": "utor",
    "4210": " distance",
    "4211": "ogn",
    "4212": " cards",
    "4213": " agree",
    "4214": "Little",
    "4215": " tease",
    "4216": " recogn",
    "4217": " obser",
    "4218": " rubber",
    "4219": "ik",
    "4220": " hate",
    "4221": " sof",
    "4222": "fast",
    "4223": "ef",
    "4224": "Ouch",
    "4225": " doesn",
    "4226": " musician",
    "4227": " advice",
    "4228": " beef",
    "4229": " serve",
    "4230": "aspoon",
    "4231": " sweetie",
    "4232": " model",
    "4233": "lter",
    "4234": " blueberries",
    "4235": " crib",
    "4236": " sofa",
    "4237": " circles",
    "4238": " breakfast",
    "4239": " tutor",
    "4240": "asis",
    "4241": " bookshe",
    "4242": " giraffe",
    "4243": " festival",
    "4244": "stri",
    "4245": " separate",
    "4246": " shelter",
    "4247": " gas",
    "4248": " airport",
    "4249": " olive",
    "4250": " rail",
    "4251": " bookshelf",
    "4252": " frogs",
    "4253": " teaspoon",
    "4254": " reverse",
    "4255": " junk",
    "4256": " riding",
    "4257": " pleased",
    "4258": " Mrs",
    "4259": " drain",
    "4260": " wipe",
    "4261": " oasis",
    "4262": " soil",
    "4263": " ahead",
    "4264": " rescue",
    "4265": " leaving",
    "4266": "ummer",
    "4267": " painter",
    "4268": " chance",
    "4269": " squeeze",
    "4270": " knob",
    "4271": " poked",
    "4272": " Teddy",
    "4273": " peeked",
    "4274": " lumber",
    "4275": " trains",
    "4276": " extra",
    "4277": " slipp",
    "4278": " quiz",
    "4279": " refused",
    "4280": "rmomet",
    "4281": " page",
    "4282": "inked",
    "4283": " rules",
    "4284": " happens",
    "4285": " sounded",
    "4286": " point",
    "4287": " winter",
    "4288": " Grandpa",
    "4289": " dancer",
    "4290": " birdc",
    "4291": " disappear",
    "4292": "rmometer",
    "4293": " Dolly",
    "4294": " waste",
    "4295": " weather",
    "4296": " birdcage",
    "4297": " lic",
    "4298": " reef",
    "4299": " theater",
    "4300": " carrying",
    "4301": " invite",
    "4302": "Daisy",
    "4303": "iform",
    "4304": " goal",
    "4305": " ostri",
    "4306": " swung",
    "4307": " uniform",
    "4308": " trade",
    "4309": " cliff",
    "4310": " lawn",
    "4311": " Pandy",
    "4312": " leaned",
    "4313": "ola",
    "4314": "angu",
    "4315": " admire",
    "4316": "ience",
    "4317": " fort",
    "4318": " accidentally",
    "4319": " pastel",
    "4320": "bbles",
    "4321": " accept",
    "4322": " stom",
    "4323": " langu",
    "4324": " twir",
    "4325": " suff",
    "4326": " panda",
    "4327": " bet",
    "4328": "riger",
    "4329": "rigerator",
    "4330": " peek",
    "4331": " blinked",
    "4332": "render",
    "4333": " starts",
    "4334": "na",
    "4335": " refrigerator",
    "4336": " anywhere",
    "4337": "!\".",
    "4338": " imagined",
    "4339": " pinch",
    "4340": " dreaming",
    "4341": " remove",
    "4342": "night",
    "4343": " Lee",
    "4344": " shower",
    "4345": " ceiling",
    "4346": " classroom",
    "4347": " caring",
    "4348": "ium",
    "4349": " grand",
    "4350": " missing",
    "4351": "aked",
    "4352": " license",
    "4353": " stable",
    "4354": " monkeys",
    "4355": " thermometer",
    "4356": "astic",
    "4357": " warned",
    "4358": " Where",
    "4359": " summer",
    "4360": " above",
    "4361": " brick",
    "4362": "ected",
    "4363": " cudd",
    "4364": " problems",
    "4365": "amber",
    "4366": " chasing",
    "4367": " apron",
    "4368": " label",
    "4369": " lawy",
    "4370": "iture",
    "4371": "urniture",
    "4372": " lid",
    "4373": "uggage",
    "4374": "lu",
    "4375": "med",
    "4376": " respectful",
    "4377": " furniture",
    "4378": " frowned",
    "4379": " zoomed",
    "4380": " pages",
    "4381": " prevent",
    "4382": " bent",
    "4383": " luggage",
    "4384": " mistakes",
    "4385": " ostrich",
    "4386": " sunset",
    "4387": "ison",
    "4388": " suggested",
    "4389": " windows",
    "4390": "sses",
    "4391": "low",
    "4392": " jail",
    "4393": " wine",
    "4394": " ribbon",
    "4395": " older",
    "4396": " shouts",
    "4397": " grape",
    "4398": " Cl",
    "4399": " Co",
    "4400": " wigg",
    "4401": "ucture",
    "4402": " structure",
    "4403": " spoil",
    "4404": "eor",
    "4405": " fixing",
    "4406": " chamber",
    "4407": " lions",
    "4408": " delay",
    "4409": " finds",
    "4410": " handed",
    "4411": " searching",
    "4412": " unite",
    "4413": "Did",
    "4414": " fought",
    "4415": " lawyer",
    "4416": " Un",
    "4417": " brightly",
    "4418": " meeting",
    "4419": " pair",
    "4420": " choice",
    "4421": " ins",
    "4422": " sent",
    "4423": " surprises",
    "4424": " Ellie",
    "4425": " art",
    "4426": "Ch",
    "4427": " favour",
    "4428": "eterin",
    "4429": "adium",
    "4430": "eterinarian",
    "4431": " stadium",
    "4432": " proudly",
    "4433": " inclu",
    "4434": "iki",
    "4435": " veterinarian",
    "4436": "vet",
    "4437": " chairs",
    "4438": " slip",
    "4439": " ped",
    "4440": " Spe",
    "4441": " sadly",
    "4442": " Bow",
    "4443": " Carl",
    "4444": " puddles",
    "4445": " berry",
    "4446": " ranch",
    "4447": "veal",
    "4448": " Boun",
    "4449": " argue",
    "4450": " V",
    "4451": " admired",
    "4452": " cur",
    "4453": " favourite",
    "4454": "Your",
    "4455": " excitedly",
    "4456": " grabs",
    "4457": " rac",
    "4458": " inf",
    "4459": "mend",
    "4460": " steam",
    "4461": "thank",
    "4462": " human",
    "4463": "ceed",
    "4464": "eorge",
    "4465": "sity",
    "4466": " Hel",
    "4467": " pushing",
    "4468": " saving",
    "4469": " Red",
    "4470": " reveal",
    "4471": " yield",
    "4472": "alley",
    "4473": "ommend",
    "4474": " repeat",
    "4475": " mall",
    "4476": " reminded",
    "4477": "olog",
    "4478": " recommend",
    "4479": " succeed",
    "4480": " leak",
    "4481": " harb",
    "4482": " surrender",
    "4483": " appl",
    "4484": "aul",
    "4485": " weap",
    "4486": " putting",
    "4487": " valley",
    "4488": "cuss",
    "4489": " mineral",
    "4490": " fre",
    "4491": " evening",
    "4492": " forgave",
    "4493": " matches",
    "4494": "elcome",
    "4495": " sneezed",
    "4496": " pup",
    "4497": " rushed",
    "4498": "ecause",
    "4499": " spade",
    "4500": " apolog",
    "4501": " discuss",
    "4502": " plates",
    "4503": "rod",
    "4504": "ations",
    "4505": " harbor",
    "4506": " ignore",
    "4507": " aw",
    "4508": " Big",
    "4509": " country",
    "4510": " language",
    "4511": " Buzzy",
    "4512": " pulls",
    "4513": " plastic",
    "4514": " supply",
    "4515": " sniffed",
    "4516": " Jazz",
    "4517": " introd",
    "4518": " replace",
    "4519": " shovel",
    "4520": " Bill",
    "4521": " raise",
    "4522": " cartoon",
    "4523": " Next",
    "4524": " cared",
    "4525": " socks",
    "4526": " strip",
    "4527": " doors",
    "4528": " mystery",
    "4529": " lives",
    "4530": " sticker",
    "4531": " sudden",
    "4532": "ari",
    "4533": " kinds",
    "4534": " slippery",
    "4535": "ero",
    "4536": " Ow",
    "4537": " player",
    "4538": " panic",
    "4539": " hoping",
    "4540": "ricane",
    "4541": "iday",
    "4542": " shone",
    "4543": "lex",
    "4544": "hero",
    "4545": " Binky",
    "4546": " Mike",
    "4547": " superhero",
    "4548": " delighted",
    "4549": " gro",
    "4550": "Yay",
    "4551": "aud",
    "4552": "chan",
    "4553": " chickens",
    "4554": " shoulder",
    "4555": " rained",
    "4556": " colourful",
    "4557": " breat",
    "4558": " Alice",
    "4559": " claw",
    "4560": " Bubbles",
    "4561": " softly",
    "4562": "Yuck",
    "4563": "rise",
    "4564": " port",
    "4565": " hol",
    "4566": "Grandma",
    "4567": " holiday",
    "4568": "icer",
    "4569": "oof",
    "4570": " barks",
    "4571": " incre",
    "4572": "ason",
    "4573": " throwing",
    "4574": " planes",
    "4575": "Mary",
    "4576": " bend",
    "4577": " Freddy",
    "4578": " shakes",
    "4579": " ended",
    "4580": " infant",
    "4581": " shivering",
    "4582": " kneel",
    "4583": " sunrise",
    "4584": " pushes",
    "4585": " Olive",
    "4586": " thanks",
    "4587": " fresh",
    "4588": " suffer",
    "4589": " points",
    "4590": "imed",
    "4591": "wards",
    "4592": " Pat",
    "4593": " tip",
    "4594": " Speedy",
    "4595": " freeze",
    "4596": " keeping",
    "4597": " Would",
    "4598": " copper",
    "4599": " giggle",
    "4600": " smells",
    "4601": " dear",
    "4602": " enter",
    "4603": " provide",
    "4604": "cast",
    "4605": "chanic",
    "4606": " dishes",
    "4607": " End",
    "4608": " unh",
    "4609": "Next",
    "4610": "cond",
    "4611": " applaud",
    "4612": " heads",
    "4613": " hurricane",
    "4614": " cherry",
    "4615": " mass",
    "4616": " meowed",
    "4617": " menu",
    "4618": " thumb",
    "4619": " brighter",
    "4620": " second",
    "4621": "ince",
    "4622": " sandcast",
    "4623": " mechanic",
    "4624": " wre",
    "4625": " sprayed",
    "4626": " letting",
    "4627": " event",
    "4628": " weapon",
    "4629": " laught",
    "4630": " x",
    "4631": " laughter",
    "4632": " clapping",
    "4633": " feelings",
    "4634": "Will",
    "4635": "icky",
    "4636": " splashing",
    "4637": "ement",
    "4638": " Or",
    "4639": "acked",
    "4640": " castles",
    "4641": " Fl",
    "4642": " score",
    "4643": " universe",
    "4644": "apping",
    "4645": " navy",
    "4646": " sticky",
    "4647": "ophie",
    "4648": " dem",
    "4649": "cer",
    "4650": " row",
    "4651": " rooms",
    "4652": " flies",
    "4653": "igi",
    "4654": " Dave",
    "4655": " unhappy",
    "4656": " greedy",
    "4657": " dare",
    "4658": " alive",
    "4659": " breaks",
    "4660": " ener",
    "4661": " invit",
    "4662": "Ready",
    "4663": " demand",
    "4664": " trusted",
    "4665": "Lisa",
    "4666": " somewhere",
    "4667": "arlie",
    "4668": " prune",
    "4669": "bles",
    "4670": " wreck",
    "4671": " mention",
    "4672": " Y",
    "4673": " examine",
    "4674": " parts",
    "4675": "year",
    "4676": " eaten",
    "4677": "oe",
    "4678": "All",
    "4679": "enry",
    "4680": " skill",
    "4681": "erc",
    "4682": " Help",
    "4683": "Buddy",
    "4684": " throws",
    "4685": " jogged",
    "4686": " starting",
    "4687": "quest",
    "4688": " rush",
    "4689": " poison",
    "4690": " pirates",
    "4691": "heart",
    "4692": " vac",
    "4693": "Emma",
    "4694": " Kiki",
    "4695": " sigh",
    "4696": " flapped",
    "4697": " drops",
    "4698": " chirp",
    "4699": " sport",
    "4700": "Qu",
    "4701": " sparkled",
    "4702": " Zoomy",
    "4703": " given",
    "4704": " streng",
    "4705": " steel",
    "4706": "Ann",
    "4707": " bumped",
    "4708": " yawned",
    "4709": " stud",
    "4710": " request",
    "4711": " scold",
    "4712": " myself",
    "4713": " strength",
    "4714": " shrugged",
    "4715": "Mark",
    "4716": " coats",
    "4717": " punish",
    "4718": " equ",
    "4719": " snugg",
    "4720": " university",
    "4721": " paid",
    "4722": " Johnny",
    "4723": " pigs",
    "4724": " scratch",
    "4725": " toe",
    "4726": " exerc",
    "4727": " tracks",
    "4728": " upstairs",
    "4729": " prayed",
    "4730": " crossed",
    "4731": " squeezed",
    "4732": " flood",
    "4733": " impressed",
    "4734": " bouncing",
    "4735": " Ru",
    "4736": "Alice",
    "4737": " rabbits",
    "4738": " badly",
    "4739": "ges",
    "4740": "..",
    "4741": " leather",
    "4742": " warn",
    "4743": " content",
    "4744": " expect",
    "4745": " courage",
    "4746": " news",
    "4747": " tide",
    "4748": " Ted",
    "4749": " minute",
    "4750": " bears",
    "4751": " claws",
    "4752": " buzz",
    "4753": " sweetheart",
    "4754": " Sm",
    "4755": " nation",
    "4756": "ating",
    "4757": "yth",
    "4758": "Sh",
    "4759": "ythm",
    "4760": " hist",
    "4761": " vacation",
    "4762": " heat",
    "4763": " strawberries",
    "4764": " observe",
    "4765": " explored",
    "4766": " settle",
    "4767": " sandcastle",
    "4768": " yawn",
    "4769": " history",
    "4770": " Lilly",
    "4771": " Lola",
    "4772": "mare",
    "4773": " Mummy",
    "4774": " Sque",
    "4775": "ially",
    "4776": " believed",
    "4777": " horses",
    "4778": "Daddy",
    "4779": " Hoppy",
    "4780": " checked",
    "4781": " Mandy",
    "4782": " network",
    "4783": " tour",
    "4784": " cheek",
    "4785": " offer",
    "4786": " easily",
    "4787": " placed",
    "4788": "spec",
    "4789": " spots",
    "4790": " snowball",
    "4791": "ween",
    "4792": " energy",
    "4793": " Under",
    "4794": " imagination",
    "4795": " blueberry",
    "4796": " between",
    "4797": "otten",
    "4798": " Bee",
    "4799": "specially",
    "4800": " Gigi",
    "4801": "izes",
    "4802": " daisy",
    "4803": " waving",
    "4804": "reeze",
    "4805": " vroom",
    "4806": " soak",
    "4807": " rhythm",
    "4808": " safari",
    "4809": " massage",
    "4810": "reat",
    "4811": " stomach",
    "4812": " baking",
    "4813": " nightmare",
    "4814": "quake",
    "4815": " insisted",
    "4816": " blowing",
    "4817": " entered",
    "4818": " beg",
    "4819": "Before",
    "4820": " stair",
    "4821": " palm",
    "4822": " beauty",
    "4823": "men",
    "4824": " twisted",
    "4825": " bother",
    "4826": " writing",
    "4827": " prunes",
    "4828": " scoop",
    "4829": " ing",
    "4830": " brain",
    "4831": "ipment",
    "4832": " poppy",
    "4833": " hills",
    "4834": "noon",
    "4835": " afternoon",
    "4836": " especially",
    "4837": " equipment",
    "4838": "hest",
    "4839": " sir",
    "4840": " pad",
    "4841": " See",
    "4842": " Fox",
    "4843": " ingred",
    "4844": " calls",
    "4845": " ingredient",
    "4846": " earthquake",
    "4847": " ignored",
    "4848": " Snowy",
    "4849": " burned",
    "4850": " nobody",
    "4851": "mble",
    "4852": " sty",
    "4853": "apa",
    "4854": " sew",
    "4855": " tug",
    "4856": "isty",
    "4857": " hearts",
    "4858": "xygen",
    "4859": " lear",
    "4860": " learnt",
    "4861": " lemonade",
    "4862": " increase",
    "4863": "illie",
    "4864": "Jenny",
    "4865": " gaz",
    "4866": " mailman",
    "4867": " whistled",
    "4868": " Sk",
    "4869": "Fred",
    "4870": " shopkeeper",
    "4871": "ffic",
    "4872": " permit",
    "4873": " tremble",
    "4874": " yucky",
    "4875": "anges",
    "4876": " moves",
    "4877": " introduce",
    "4878": " lemons",
    "4879": " crash",
    "4880": " beans",
    "4881": " floated",
    "4882": "edn",
    "4883": "ednesday",
    "4884": "ittens",
    "4885": "Welcome",
    "4886": " planned",
    "4887": " strike",
    "4888": " traffic",
    "4889": " include",
    "4890": " slap",
    "4891": " Lucky",
    "4892": " racing",
    "4893": "resses",
    "4894": " wisdom",
    "4895": " pur",
    "4896": " wags",
    "4897": " Finny",
    "4898": "laimed",
    "4899": " George",
    "4900": " luck",
    "4901": " following",
    "4902": " price",
    "4903": " mama",
    "4904": " pitch",
    "4905": " below",
    "4906": " Elly",
    "4907": " Have",
    "4908": "Le",
    "4909": " weight",
    "4910": " exclaimed",
    "4911": "house",
    "4912": " buried",
    "4913": " comf",
    "4914": " follows",
    "4915": " ingredients",
    "4916": " recognize",
    "4917": " furt",
    "4918": " candles",
    "4919": " marbles",
    "4920": "Mimi",
    "4921": "riage",
    "4922": "unday",
    "4923": " Alex",
    "4924": " Wednesday",
    "4925": " apart",
    "4926": " growled",
    "4927": "tain",
    "4928": " Su",
    "4929": "ores",
    "4930": " folded",
    "4931": " hopes",
    "4932": " teaching",
    "4933": " closely",
    "4934": " Finn",
    "4935": " Who",
    "4936": " heel",
    "4937": " oper",
    "4938": " Sunday",
    "4939": " Owl",
    "4940": " Paul",
    "4941": " zigzag",
    "4942": " pulling",
    "4943": " digg",
    "4944": " bouncy",
    "4945": " further",
    "4946": " chewed",
    "4947": " digging",
    "4948": "With",
    "4949": "Woof",
    "4950": " dresses",
    "4951": " image",
    "4952": "rec",
    "4953": "cery",
    "4954": " shouting",
    "4955": "uct",
    "4956": " grocery",
    "4957": " twisty",
    "4958": " peanuts",
    "4959": " puzzles",
    "4960": "bbing",
    "4961": " Dog",
    "4962": " scrat",
    "4963": "look",
    "4964": " chores",
    "4965": " whisper",
    "4966": " Is",
    "4967": " Froggy",
    "4968": " spike",
    "4969": " cape",
    "4970": " snail",
    "4971": " acorns",
    "4972": " worms",
    "4973": "hood",
    "4974": " deeper",
    "4975": " urge",
    "4976": "ifi",
    "4977": " exper",
    "4978": " Whenever",
    "4979": " Squeaky",
    "4980": " Tilly",
    "4981": " Grace",
    "4982": " attention",
    "4983": " planted",
    "4984": "ecture",
    "4985": " exercise",
    "4986": " Danny",
    "4987": " cub",
    "4988": " operation",
    "4989": " hon",
    "4990": " agre",
    "4991": " quite",
    "4992": " simp",
    "4993": "Everyone",
    "4994": " struggle",
    "4995": " Mittens",
    "4996": " blood",
    "4997": "ddy",
    "4998": " lecture",
    "4999": " washing",
    "5000": " hurting",
    "5001": " gifts",
    "5002": " vanished",
    "5003": " dressed",
    "5004": " invitation",
    "5005": " solved",
    "5006": " licks",
    "5007": " Sharing",
    "5008": " snuggled",
    "5009": "ippy",
    "5010": " ble",
    "5011": " marriage",
    "5012": " quietly",
    "5013": "gie",
    "5014": " warning",
    "5015": " jazz",
    "5016": " breathe",
    "5017": "reci",
    "5018": " elephants",
    "5019": " sizes",
    "5020": " dried",
    "5021": " fallen",
    "5022": " landscape",
    "5023": "ories",
    "5024": " neighbour",
    "5025": " mice",
    "5026": "uesday",
    "5027": " appreci",
    "5028": " Sophie",
    "5029": " Joey",
    "5030": " \u2013",
    "5031": " eagerly",
    "5032": " sailing",
    "5033": " Coco",
    "5034": " paused",
    "5035": "ips",
    "5036": " counter",
    "5037": " Good",
    "5038": " Bounce",
    "5039": " Penny",
    "5040": " worth",
    "5041": "looking",
    "5042": " Rock",
    "5043": " oxygen",
    "5044": "Because",
    "5045": " release",
    "5046": " shined",
    "5047": "Not",
    "5048": "pted",
    "5049": " reaches",
    "5050": " sprink",
    "5051": " balan",
    "5052": " Zara",
    "5053": " oh",
    "5054": "isses",
    "5055": " kisses",
    "5056": " style",
    "5057": " bricks",
    "5058": " glo",
    "5059": " plays",
    "5060": " Tuesday",
    "5061": " ideas",
    "5062": "sed",
    "5063": " wob",
    "5064": " fireworks",
    "5065": "Bella",
    "5066": " conf",
    "5067": "iggly",
    "5068": "ucked",
    "5069": " seeing",
    "5070": " flap",
    "5071": " accepted",
    "5072": "right",
    "5073": " Pip",
    "5074": " blink",
    "5075": "Today",
    "5076": " Ros",
    "5077": " tremb",
    "5078": "mm",
    "5079": " muddy",
    "5080": "These",
    "5081": " memory",
    "5082": " married",
    "5083": " tomatoes",
    "5084": " Annie",
    "5085": " exit",
    "5086": "ops",
    "5087": " wagging",
    "5088": " fash",
    "5089": " Charlie",
    "5090": "Remy",
    "5091": " wandered",
    "5092": "unately",
    "5093": "ipping",
    "5094": " gloves",
    "5095": " captain",
    "5096": " pillows",
    "5097": " receive",
    "5098": " resp",
    "5099": " Pinky",
    "5100": "raged",
    "5101": " during",
    "5102": " Everything",
    "5103": "etch",
    "5104": " petals",
    "5105": " web",
    "5106": " watered",
    "5107": " Eventually",
    "5108": "ived",
    "5109": " manage",
    "5110": " brings",
    "5111": " pinched",
    "5112": " cakes",
    "5113": " vanish",
    "5114": " fashion",
    "5115": " Bluey",
    "5116": " printer",
    "5117": " destroyed",
    "5118": " allow",
    "5119": "ups",
    "5120": " hadn",
    "5121": " worse",
    "5122": " Fifi",
    "5123": "Surpr",
    "5124": " vel",
    "5125": " hits",
    "5126": " bur",
    "5127": "xu",
    "5128": " velvet",
    "5129": " appear",
    "5130": " disagree",
    "5131": " catching",
    "5132": "do",
    "5133": " Ro",
    "5134": " scattered",
    "5135": " memories",
    "5136": " sorts",
    "5137": " Papa",
    "5138": " hers",
    "5139": " scolded",
    "5140": " oranges",
    "5141": " pears",
    "5142": " signs",
    "5143": " bones",
    "5144": " rang",
    "5145": " seats",
    "5146": " sits",
    "5147": " snapped",
    "5148": " gazed",
    "5149": "uxu",
    "5150": " raised",
    "5151": "nce",
    "5152": " inst",
    "5153": "Bl",
    "5154": " si",
    "5155": " pedal",
    "5156": " Maria",
    "5157": " zipped",
    "5158": " pies",
    "5159": " prints",
    "5160": " shot",
    "5161": " sliding",
    "5162": " God",
    "5163": " fro",
    "5164": " easier",
    "5165": " skills",
    "5166": "ssible",
    "5167": " climbs",
    "5168": " twirled",
    "5169": "ccer",
    "5170": " blankets",
    "5171": " forgotten",
    "5172": " baked",
    "5173": "ester",
    "5174": " difference",
    "5175": "esterday",
    "5176": " luxu",
    "5177": "orted",
    "5178": " golden",
    "5179": "Yum",
    "5180": " kitty",
    "5181": " Tw",
    "5182": "ising",
    "5183": " cutting",
    "5184": " season",
    "5185": "aggie",
    "5186": " crow",
    "5187": " nowhere",
    "5188": "ah",
    "5189": " soccer",
    "5190": " dared",
    "5191": " Henry",
    "5192": " bites",
    "5193": " Harry",
    "5194": "anny",
    "5195": " lung",
    "5196": " celebrated",
    "5197": " encourage",
    "5198": "choo",
    "5199": " straight",
    "5200": "chie",
    "5201": " unlocked",
    "5202": "sters",
    "5203": " sorting",
    "5204": " bleed",
    "5205": " collected",
    "5206": "aped",
    "5207": " welcomed",
    "5208": " visited",
    "5209": " spoons",
    "5210": " ours",
    "5211": " stitch",
    "5212": " jogging",
    "5213": "Surprise",
    "5214": "medi",
    "5215": " emer",
    "5216": " Spark",
    "5217": " isn",
    "5218": "mediately",
    "5219": " tong",
    "5220": " trave",
    "5221": " winner",
    "5222": "umble",
    "5223": " since",
    "5224": " prett",
    "5225": "Ok",
    "5226": "Moral",
    "5227": " Tony",
    "5228": " attached",
    "5229": " weeping",
    "5230": " marching",
    "5231": " luxury",
    "5232": " simple",
    "5233": " Each",
    "5234": " shouldn",
    "5235": " guessed",
    "5236": " zero",
    "5237": " created",
    "5238": " stuffed",
    "5239": " pets",
    "5240": " famil",
    "5241": " waist",
    "5242": " urged",
    "5243": " bowed",
    "5244": " selling",
    "5245": " floating",
    "5246": " Smith",
    "5247": "ction",
    "5248": " bye",
    "5249": " King",
    "5250": " kingdom",
    "5251": " vict",
    "5252": " olives",
    "5253": "rr",
    "5254": " kicking",
    "5255": " Wiggly",
    "5256": " punished",
    "5257": " Liz",
    "5258": " Baby",
    "5259": " toes",
    "5260": " grant",
    "5261": " muscles",
    "5262": " Rosie",
    "5263": " jewels",
    "5264": " beds",
    "5265": "sit",
    "5266": " melted",
    "5267": " prep",
    "5268": "Goodbye",
    "5269": " slice",
    "5270": " collection",
    "5271": " tore",
    "5272": " measured",
    "5273": " cras",
    "5274": "aker",
    "5275": " trapped",
    "5276": "iers",
    "5277": "omeday",
    "5278": " lined",
    "5279": "'ve",
    "5280": " acted",
    "5281": " encouraged",
    "5282": "fortunately",
    "5283": "va",
    "5284": " Sandy",
    "5285": " received",
    "5286": " Before",
    "5287": " waffles",
    "5288": " Wally",
    "5289": " west",
    "5290": " meow",
    "5291": " patterns",
    "5292": "ino",
    "5293": " brus",
    "5294": "eath",
    "5295": " mouths",
    "5296": "ents",
    "5297": "kins",
    "5298": " bang",
    "5299": " Kate",
    "5300": "Meow",
    "5301": " peaches",
    "5302": " breeze",
    "5303": "aded",
    "5304": "une",
    "5305": "ring",
    "5306": " printed",
    "5307": " soldiers",
    "5308": " someday",
    "5309": " potatoes",
    "5310": "rin",
    "5311": " pupil",
    "5312": "umes",
    "5313": " Millie",
    "5314": " drinks",
    "5315": " shed",
    "5316": " experience",
    "5317": " Tuna",
    "5318": " presents",
    "5319": " firef",
    "5320": " Ruby",
    "5321": " surround",
    "5322": " none",
    "5323": " voices",
    "5324": "osed",
    "5325": " grin",
    "5326": "eep",
    "5327": " Uncle",
    "5328": " relaxed",
    "5329": " victory",
    "5330": "cus",
    "5331": " breaking",
    "5332": " paints",
    "5333": " hurried",
    "5334": "eve",
    "5335": "ission",
    "5336": " tongue",
    "5337": " costumes",
    "5338": " flat",
    "5339": " mentioned",
    "5340": " begged",
    "5341": " teasing",
    "5342": " whistling",
    "5343": " fetch",
    "5344": " permission",
    "5345": " disagreed",
    "5346": " sip",
    "5347": " pearl",
    "5348": " six",
    "5349": "akes",
    "5350": " stro",
    "5351": " These",
    "5352": " appro",
    "5353": " esc",
    "5354": " skipping",
    "5355": " fishing",
    "5356": " May",
    "5357": "Leo",
    "5358": " highest",
    "5359": " pra",
    "5360": " watches",
    "5361": " sorted",
    "5362": "vest",
    "5363": "ship",
    "5364": " tonight",
    "5365": " Bo",
    "5366": " opin",
    "5367": " lets",
    "5368": "icing",
    "5369": " Qu",
    "5370": " perfectly",
    "5371": " shadows",
    "5372": " immediately",
    "5373": " herbs",
    "5374": " warmth",
    "5375": " spit",
    "5376": " remained",
    "5377": " Its",
    "5378": "walk",
    "5379": "Bobby",
    "5380": "irring",
    "5381": "Jen",
    "5382": " sneak",
    "5383": " lips",
    "5384": " kneeled",
    "5385": "Blue",
    "5386": " contest",
    "5387": " Che",
    "5388": "utter",
    "5389": " cartoons",
    "5390": " sidewalk",
    "5391": " colours",
    "5392": " stamps",
    "5393": " ago",
    "5394": "Ha",
    "5395": " Toto",
    "5396": " Follow",
    "5397": " east",
    "5398": " headed",
    "5399": " Boo",
    "5400": "oved",
    "5401": "\",",
    "5402": " strang",
    "5403": " fed",
    "5404": " ladyb",
    "5405": " supposed",
    "5406": " lick",
    "5407": " roots",
    "5408": " crunch",
    "5409": " mixing",
    "5410": " works",
    "5411": " decorations",
    "5412": " known",
    "5413": " melting",
    "5414": " emergen",
    "5415": "Mandy",
    "5416": " rested",
    "5417": " Suzy",
    "5418": " lines",
    "5419": " Jul",
    "5420": " lily",
    "5421": " instr",
    "5422": " laid",
    "5423": " Gr",
    "5424": " cones",
    "5425": " wiggle",
    "5426": "ety",
    "5427": " setting",
    "5428": " shock",
    "5429": " Slow",
    "5430": " Ab",
    "5431": "sing",
    "5432": " studied",
    "5433": " strangers",
    "5434": " Rocky",
    "5435": "Really",
    "5436": " twigs",
    "5437": " theirs",
    "5438": " brid",
    "5439": " girls",
    "5440": " screams",
    "5441": "!\",",
    "5442": " lands",
    "5443": " ordered",
    "5444": "boo",
    "5445": " moments",
    "5446": " stirring",
    "5447": " fields",
    "5448": " alright",
    "5449": " stealing",
    "5450": " Dr",
    "5451": "Andy",
    "5452": " rul",
    "5453": " bravely",
    "5454": " Both",
    "5455": "avid",
    "5456": " mister",
    "5457": "!'",
    "5458": " scratched",
    "5459": " playtime",
    "5460": " ripped",
    "5461": "ded",
    "5462": " tucked",
    "5463": " burning",
    "5464": " resting",
    "5465": " Chicky",
    "5466": " Clara",
    "5467": " bridges",
    "5468": " text",
    "5469": " officer",
    "5470": "ishes",
    "5471": "please",
    "5472": " invest",
    "5473": "Sammy",
    "5474": "Bird",
    "5475": "abies",
    "5476": " investig",
    "5477": " settled",
    "5478": " achie",
    "5479": " matched",
    "5480": " texture",
    "5481": "Happy",
    "5482": " turning",
    "5483": " waits",
    "5484": " Sky",
    "5485": "Peter",
    "5486": "ored",
    "5487": " trembling",
    "5488": "isten",
    "5489": " nails",
    "5490": "atie",
    "5491": " Someone",
    "5492": " muffins",
    "5493": " decision",
    "5494": "ids",
    "5495": " James",
    "5496": " escaped",
    "5497": " investigate",
    "5498": " piles",
    "5499": " broom",
    "5500": "osity",
    "5501": " ladybug",
    "5502": " sore",
    "5503": " Pepper",
    "5504": " admir",
    "5505": " appreciate",
    "5506": " threat",
    "5507": " babies",
    "5508": " silence",
    "5509": " sisters",
    "5510": " area",
    "5511": " emergency",
    "5512": " dads",
    "5513": "ther",
    "5514": " answers",
    "5515": " pupp",
    "5516": " keys",
    "5517": " chewing",
    "5518": " slapped",
    "5519": " wiz",
    "5520": " importance",
    "5521": " served",
    "5522": " Hop",
    "5523": " safety",
    "5524": "Boo",
    "5525": "izing",
    "5526": "Would",
    "5527": "Bu",
    "5528": " sparkle",
    "5529": " touching",
    "5530": " Later",
    "5531": " soared",
    "5532": "igail",
    "5533": " hen",
    "5534": " sings",
    "5535": "allen",
    "5536": "Ella",
    "5537": "bers",
    "5538": "antly",
    "5539": "Momo",
    "5540": " Dino",
    "5541": " amazement",
    "5542": " challen",
    "5543": " hesit",
    "5544": "inkle",
    "5545": " revealed",
    "5546": " twin",
    "5547": "achel",
    "5548": "anna",
    "5549": " dire",
    "5550": " item",
    "5551": " soaked",
    "5552": " keeps",
    "5553": " writ",
    "5554": "zing",
    "5555": " foods",
    "5556": "ides",
    "5557": " dinosaurs",
    "5558": " rides",
    "5559": " recorded",
    "5560": " tickle",
    "5561": " Zigzag",
    "5562": " Me",
    "5563": " wizard",
    "5564": " vet",
    "5565": " trips",
    "5566": " An",
    "5567": " glowed",
    "5568": " Frog",
    "5569": " inch",
    "5570": " beamed",
    "5571": " hi",
    "5572": " quack",
    "5573": " curled",
    "5574": " hated",
    "5575": " wink",
    "5576": " shopping",
    "5577": " eats",
    "5578": " Bug",
    "5579": "Eventually",
    "5580": " praised",
    "5581": " wooden",
    "5582": " mittens",
    "5583": " studying",
    "5584": " guy",
    "5585": " brushes",
    "5586": " spaceship",
    "5587": " crawling",
    "5588": " gust",
    "5589": " Something",
    "5590": "Cat",
    "5591": " ruler",
    "5592": " flav",
    "5593": "ishing",
    "5594": " downstairs",
    "5595": " shooting",
    "5596": " napping",
    "5597": " tastes",
    "5598": " marks",
    "5599": " sprinkles",
    "5600": " cuddled",
    "5601": " dot",
    "5602": "hello",
    "5603": " fut",
    "5604": " wond",
    "5605": "plash",
    "5606": "ales",
    "5607": "aved",
    "5608": " future",
    "5609": " monsters",
    "5610": " collecting",
    "5611": " measuring",
    "5612": " Happy",
    "5613": " families",
    "5614": " First",
    "5615": " Out",
    "5616": "'.",
    "5617": " Mo",
    "5618": " thrill",
    "5619": " oat",
    "5620": "irts",
    "5621": " result",
    "5622": " Rabbit",
    "5623": " approached",
    "5624": "Jake",
    "5625": " crunchy",
    "5626": "Un",
    "5627": "act",
    "5628": "ding",
    "5629": " bleeding",
    "5630": " remembers",
    "5631": " beat",
    "5632": " nicer",
    "5633": " sneaky",
    "5634": " disturbed",
    "5635": " leader",
    "5636": " scaring",
    "5637": "Or",
    "5638": " peel",
    "5639": "hind",
    "5640": " Hope",
    "5641": " firemen",
    "5642": " Star",
    "5643": " neighborhood",
    "5644": " grey",
    "5645": " Not",
    "5646": " motion",
    "5647": " noon",
    "5648": " possible",
    "5649": "Emily",
    "5650": "Somet",
    "5651": " apologized",
    "5652": " weighed",
    "5653": " Did",
    "5654": "ues",
    "5655": " tickets",
    "5656": " naps",
    "5657": "Cl",
    "5658": " loose",
    "5659": " pride",
    "5660": " youth",
    "5661": " swims",
    "5662": " strings",
    "5663": " recognized",
    "5664": " siren",
    "5665": "Mmm",
    "5666": "ped",
    "5667": " poking",
    "5668": "fied",
    "5669": " Ho",
    "5670": "cious",
    "5671": "ha",
    "5672": " tricked",
    "5673": "elvet",
    "5674": " awe",
    "5675": " gained",
    "5676": " wonders",
    "5677": " crashed",
    "5678": " wanting",
    "5679": " obe",
    "5680": " seesaw",
    "5681": " worker",
    "5682": "unnies",
    "5683": "ls",
    "5684": " draws",
    "5685": " scooped",
    "5686": " zooming",
    "5687": " opinion",
    "5688": "oming",
    "5689": " yelling",
    "5690": " prepared",
    "5691": ".'",
    "5692": " grinned",
    "5693": " Slowly",
    "5694": " doggy",
    "5695": " poems",
    "5696": " Beep",
    "5697": " acting",
    "5698": " happiest",
    "5699": " chef",
    "5700": " sneaked",
    "5701": " respons",
    "5702": " Always",
    "5703": " eff",
    "5704": " Lizzy",
    "5705": " bunnies",
    "5706": " owned",
    "5707": " anytime",
    "5708": " struck",
    "5709": " pedals",
    "5710": " knelt",
    "5711": "Ollie",
    "5712": "ena",
    "5713": " secrets",
    "5714": " pause",
    "5715": "ere",
    "5716": " decorated",
    "5717": " horns",
    "5718": " agreement",
    "5719": " Squ",
    "5720": "ided",
    "5721": " frost",
    "5722": " tallest",
    "5723": " obey",
    "5724": "riends",
    "5725": "ogo",
    "5726": "oys",
    "5727": " Stop",
    "5728": "Have",
    "5729": " decides",
    "5730": " Once",
    "5731": " behaved",
    "5732": " tugged",
    "5733": " sides",
    "5734": " woof",
    "5735": "lier",
    "5736": " slim",
    "5737": "zen",
    "5738": " goodnight",
    "5739": " keeper",
    "5740": " chirped",
    "5741": " sparkling",
    "5742": " precious",
    "5743": "mother",
    "5744": " repeated",
    "5745": "Tr",
    "5746": "ien",
    "5747": " claps",
    "5748": " snowballs",
    "5749": "affes",
    "5750": "indy",
    "5751": "ud",
    "5752": " Ray",
    "5753": "rs",
    "5754": " ourselves",
    "5755": "allow",
    "5756": " giraffes",
    "5757": " contain",
    "5758": " balancing",
    "5759": " kindly",
    "5760": " spending",
    "5761": " writes",
    "5762": "ays",
    "5763": "ppers",
    "5764": " Like",
    "5765": " prop",
    "5766": "omas",
    "5767": " hissed",
    "5768": " frozen",
    "5769": "First",
    "5770": " frosting",
    "5771": " effort",
    "5772": " buzzing",
    "5773": " struggled",
    "5774": " Steve",
    "5775": " admiring",
    "5776": " rele",
    "5777": "iggy",
    "5778": " Velvet",
    "5779": " sweeties",
    "5780": " slimy",
    "5781": " brushed",
    "5782": " bloomed",
    "5783": "Susie",
    "5784": " Am",
    "5785": " polished",
    "5786": " Zoe",
    "5787": "arth",
    "5788": "anted",
    "5789": " comfy",
    "5790": " staying",
    "5791": " boo",
    "5792": " rubbing",
    "5793": " pockets",
    "5794": " rocking",
    "5795": "Ducky",
    "5796": " thrilled",
    "5797": " beside",
    "5798": " comple",
    "5799": " Aunt",
    "5800": " Maggie",
    "5801": "Ah",
    "5802": " eight",
    "5803": " machines",
    "5804": "isdom",
    "5805": "urry",
    "5806": " earlier",
    "5807": " seems",
    "5808": " yesterday",
    "5809": " rust",
    "5810": " Keep",
    "5811": " traveled",
    "5812": " folding",
    "5813": " ruin",
    "5814": " boom",
    "5815": " cracked",
    "5816": " hugging",
    "5817": "ities",
    "5818": " Stitch",
    "5819": " radishes",
    "5820": " loving",
    "5821": " opening",
    "5822": " circus",
    "5823": " curiosity",
    "5824": " surrounded",
    "5825": " Rachel",
    "5826": " demanded",
    "5827": " spraying",
    "5828": " Green",
    "5829": "amie",
    "5830": " removed",
    "5831": " gaze",
    "5832": " honk",
    "5833": " pebbles",
    "5834": " hardly",
    "5835": " zookeeper",
    "5836": " catches",
    "5837": "edding",
    "5838": "Sp",
    "5839": " powers",
    "5840": " stripes",
    "5841": " Pippa",
    "5842": " loaded",
    "5843": "Sometimes",
    "5844": " pots",
    "5845": " splashes",
    "5846": " petted",
    "5847": " David",
    "5848": " matching",
    "5849": "Thanks",
    "5850": " belly",
    "5851": " stare",
    "5852": " toss",
    "5853": "Yummy",
    "5854": "ibb",
    "5855": " apologize",
    "5856": " whatever",
    "5857": " comforted",
    "5858": " rocked",
    "5859": "oh",
    "5860": " Bree",
    "5861": " ribbons",
    "5862": "ern",
    "5863": " Birdie",
    "5864": " Joy",
    "5865": " struggling",
    "5866": " deser",
    "5867": " expected",
    "5868": " steep",
    "5869": " protected",
    "5870": " neighbors",
    "5871": " chases",
    "5872": " smiley",
    "5873": "During",
    "5874": "wh",
    "5875": " granted",
    "5876": " crumb",
    "5877": " Mat",
    "5878": " purred",
    "5879": " diving",
    "5880": " sadness",
    "5881": "Whiskers",
    "5882": " organizing",
    "5883": "lowers",
    "5884": " eagle",
    "5885": " heroes",
    "5886": " dipped",
    "5887": " sunlight",
    "5888": " lied",
    "5889": " Frank",
    "5890": " pastels",
    "5891": " roads",
    "5892": " safer",
    "5893": " scru",
    "5894": " sting",
    "5895": "Ex",
    "5896": " Milly",
    "5897": " argued",
    "5898": " Water",
    "5899": " goals",
    "5900": " discovery",
    "5901": " Abigail",
    "5902": " peered",
    "5903": " villag",
    "5904": " Bouncy",
    "5905": "Ro",
    "5906": " tim",
    "5907": "loe",
    "5908": " dragons",
    "5909": " buckets",
    "5910": " buildings",
    "5911": " parties",
    "5912": " beard",
    "5913": " wedding",
    "5914": "Rex",
    "5915": " flutter",
    "5916": " planets",
    "5917": " Robby",
    "5918": " ann",
    "5919": " polishing",
    "5920": "ira",
    "5921": " released",
    "5922": " Chr",
    "5923": " crabs",
    "5924": " Gogo",
    "5925": " Watch",
    "5926": " tails",
    "5927": " sausages",
    "5928": " Ju",
    "5929": " argu",
    "5930": "use",
    "5931": " Car",
    "5932": " bottles",
    "5933": " contro",
    "5934": " wiggled",
    "5935": " teased",
    "5936": "uke",
    "5937": " arguing",
    "5938": " sled",
    "5939": " dragged",
    "5940": " padd",
    "5941": " roaring",
    "5942": " clearing",
    "5943": " movies",
    "5944": " shirts",
    "5945": " gathering",
    "5946": " airpl",
    "5947": " wid",
    "5948": "joyed",
    "5949": " spiders",
    "5950": " teaches",
    "5951": " limes",
    "5952": " Dare",
    "5953": " overjoyed",
    "5954": " actually",
    "5955": " sighs",
    "5956": " continue",
    "5957": " cuddle",
    "5958": " soaring",
    "5959": " Jess",
    "5960": " smallest",
    "5961": " drives",
    "5962": " rip",
    "5963": " sparkles",
    "5964": " cubes",
    "5965": " situ",
    "5966": " Olly",
    "5967": " challenge",
    "5968": " talent",
    "5969": " grandmother",
    "5970": " Splash",
    "5971": " pouring",
    "5972": "umm",
    "5973": " pretends",
    "5974": " cuts",
    "5975": " bank",
    "5976": " peppers",
    "5977": " quarreling",
    "5978": " mane",
    "5979": " shivered",
    "5980": "ten",
    "5981": " dusty",
    "5982": "ley",
    "5983": " villagers",
    "5984": " wondering",
    "5985": " stretching",
    "5986": "njoy",
    "5987": " weeks",
    "5988": "ib",
    "5989": " darker",
    "5990": " wherever",
    "5991": "Tiny",
    "5992": "jam",
    "5993": " X",
    "5994": " onwards",
    "5995": " rings",
    "5996": " Katie",
    "5997": " united",
    "5998": "Achoo",
    "5999": " bead",
    "6000": " Being",
    "6001": " Everyday",
    "6002": " prettiest",
    "6003": " caut",
    "6004": "Johnny",
    "6005": " realize",
    "6006": " company",
    "6007": " penguins",
    "6008": "annah",
    "6009": "Luna",
    "6010": "Fr",
    "6011": " bedtime",
    "6012": " Wisdom",
    "6013": " completed",
    "6014": " Leave",
    "6015": " knights",
    "6016": "\u201d.",
    "6017": " Spring",
    "6018": " Je",
    "6019": " flags",
    "6020": " Because",
    "6021": " playroom",
    "6022": " actions",
    "6023": " Zero",
    "6024": " learns",
    "6025": " gotten",
    "6026": " Prin",
    "6027": "ana",
    "6028": " patience",
    "6029": "dam",
    "6030": "inda",
    "6031": " shrug",
    "6032": " kites",
    "6033": " responsible",
    "6034": " fears",
    "6035": " destination",
    "6036": " reply",
    "6037": " wires",
    "6038": " dam",
    "6039": " wrist",
    "6040": "aws",
    "6041": " packing",
    "6042": " applauded",
    "6043": " fault",
    "6044": " mountains",
    "6045": " scrubbed",
    "6046": " ma",
    "6047": " Ava",
    "6048": " crept",
    "6049": "Uh",
    "6050": " Earth",
    "6051": " satis",
    "6052": " phot",
    "6053": " third",
    "6054": " pencils",
    "6055": " wins",
    "6056": "icorn",
    "6057": " sticking",
    "6058": " baker",
    "6059": " visiting",
    "6060": " wound",
    "6061": " peas",
    "6062": " uses",
    "6063": " reminder",
    "6064": " control",
    "6065": "Grandpa",
    "6066": "ashed",
    "6067": " joking",
    "6068": " awake",
    "6069": " instruct",
    "6070": " Put",
    "6071": " healed",
    "6072": " staring",
    "6073": " hitting",
    "6074": " Fish",
    "6075": " screaming",
    "6076": "Rob",
    "6077": "uckily",
    "6078": " Friends",
    "6079": " helmets",
    "6080": "enty",
    "6081": " unicorn",
    "6082": "ler",
    "6083": "seek",
    "6084": " towels",
    "6085": " Lou",
    "6086": "Silly",
    "6087": " chips",
    "6088": " creation",
    "6089": "ica",
    "6090": " wasted",
    "6091": "bie",
    "6092": " Behind",
    "6093": "Mar",
    "6094": " masks",
    "6095": "laire",
    "6096": " forgi",
    "6097": " items",
    "6098": " firefight",
    "6099": " lollipops",
    "6100": " outdo",
    "6101": "Watch",
    "6102": " heav",
    "6103": " guns",
    "6104": " Hippy",
    "6105": " died",
    "6106": " seas",
    "6107": " glitter",
    "6108": "uddles",
    "6109": " arrive",
    "6110": " stole",
    "6111": " weren",
    "6112": " scales",
    "6113": " accom",
    "6114": " perched",
    "6115": " achieve",
    "6116": " logs",
    "6117": " practicing",
    "6118": "die",
    "6119": " whose",
    "6120": " instructions",
    "6121": " pumpkins",
    "6122": "Stay",
    "6123": " batteries",
    "6124": " swoop",
    "6125": " agrees",
    "6126": " candies",
    "6127": " project",
    "6128": " snakes",
    "6129": " chirping",
    "6130": "Benny",
    "6131": " shelves",
    "6132": " protecting",
    "6133": " exact",
    "6134": " parked",
    "6135": " Cra",
    "6136": " patiently",
    "6137": " activ",
    "6138": " shoulders",
    "6139": " videos",
    "6140": " blows",
    "6141": " promises",
    "6142": "Fo",
    "6143": " dent",
    "6144": "go",
    "6145": "hee",
    "6146": "usan",
    "6147": "ners",
    "6148": " airplane",
    "6149": " examined",
    "6150": "jamas",
    "6151": "Doggy",
    "6152": "erest",
    "6153": " roses",
    "6154": " accompl",
    "6155": " tasks",
    "6156": "Dave",
    "6157": " Hoot",
    "6158": "Poppy",
    "6159": " Bop",
    "6160": "Bunny",
    "6161": " beads",
    "6162": " bowls",
    "6163": " crumbs",
    "6164": " Moo",
    "6165": "zes",
    "6166": " listens",
    "6167": " Love",
    "6168": " Brownie",
    "6169": " Catty",
    "6170": "uest",
    "6171": "Pete",
    "6172": " Ol",
    "6173": " bunch",
    "6174": " cough",
    "6175": " dolphins",
    "6176": " guest",
    "6177": " requested",
    "6178": "cakes",
    "6179": " remote",
    "6180": " improved",
    "6181": " brand",
    "6182": " reaching",
    "6183": "anta",
    "6184": " Jan",
    "6185": " alien",
    "6186": "ayla",
    "6187": " Bye",
    "6188": " Sun",
    "6189": " copy",
    "6190": " cheering",
    "6191": " photos",
    "6192": "irm",
    "6193": " Chew",
    "6194": " Julie",
    "6195": "Bad",
    "6196": " Blink",
    "6197": "Time",
    "6198": " cans",
    "6199": " Cuddles",
    "6200": " timer",
    "6201": " By",
    "6202": " replaced",
    "6203": " workers",
    "6204": "athy",
    "6205": " stern",
    "6206": " Enjoy",
    "6207": " neither",
    "6208": "Mike",
    "6209": " misses",
    "6210": " passing",
    "6211": " curtains",
    "6212": " confl",
    "6213": "Chirpy",
    "6214": " rainbows",
    "6215": " rubs",
    "6216": "George",
    "6217": " rolls",
    "6218": "uctantly",
    "6219": " patted",
    "6220": " pajamas",
    "6221": "ilo",
    "6222": " outdoors",
    "6223": " fasc",
    "6224": "esome",
    "6225": "inated",
    "6226": "dies",
    "6227": " Squirrel",
    "6228": "  ",
    "6229": "Lola",
    "6230": "Run",
    "6231": " puppet",
    "6232": " Princess",
    "6233": " beneath",
    "6234": " closes",
    "6235": " drums",
    "6236": " lap",
    "6237": " tune",
    "6238": " Beth",
    "6239": " Mouse",
    "6240": " filling",
    "6241": "Miss",
    "6242": " refuse",
    "6243": "angled",
    "6244": " Sorry",
    "6245": " sweat",
    "6246": " faced",
    "6247": " seven",
    "6248": " balanced",
    "6249": " rescued",
    "6250": " quacked",
    "6251": "neath",
    "6252": " Abby",
    "6253": "Paul",
    "6254": "bl",
    "6255": "istle",
    "6256": " awesome",
    "6257": " 1",
    "6258": " However",
    "6259": " mission",
    "6260": " cautious",
    "6261": " conflict",
    "6262": " guys",
    "6263": " cause",
    "6264": " observed",
    "6265": " vent",
    "6266": " Thomas",
    "6267": " pastries",
    "6268": "nie",
    "6269": " Our",
    "6270": " doctors",
    "6271": " exactly",
    "6272": " rule",
    "6273": " becoming",
    "6274": " policeman",
    "6275": " mes",
    "6276": " rockets",
    "6277": "uly",
    "6278": " Yes",
    "6279": "you",
    "6280": " Dot",
    "6281": " fairies",
    "6282": "aster",
    "6283": "lay",
    "6284": " pout",
    "6285": "An",
    "6286": " blooming",
    "6287": " tractor",
    "6288": " farther",
    "6289": " interest",
    "6290": " Sad",
    "6291": "avi",
    "6292": "Oops",
    "6293": "Great",
    "6294": " included",
    "6295": " remembering",
    "6296": " curly",
    "6297": "Fine",
    "6298": "Zoom",
    "6299": " teamwork",
    "6300": "zie",
    "6301": " fascinated",
    "6302": " slam",
    "6303": " wobbled",
    "6304": " truly",
    "6305": " helpers",
    "6306": " sights",
    "6307": " paddle",
    "6308": " firm",
    "6309": " stumble",
    "6310": " Jilly",
    "6311": "Henry",
    "6312": " caused",
    "6313": "acob",
    "6314": " prayer",
    "6315": " recording",
    "6316": " spong",
    "6317": "kelly",
    "6318": "ais",
    "6319": " starfish",
    "6320": " traded",
    "6321": " supplies",
    "6322": " pointy",
    "6323": " thro",
    "6324": " situation",
    "6325": "eah",
    "6326": " everyday",
    "6327": " neighbourhood",
    "6328": "gers",
    "6329": " ornaments",
    "6330": " Ally",
    "6331": " valued",
    "6332": " adding",
    "6333": "Some",
    "6334": " reluctantly",
    "6335": " dots",
    "6336": " stays",
    "6337": " bare",
    "6338": " prettier",
    "6339": " tables",
    "6340": " desert",
    "6341": " snowmen",
    "6342": " steady",
    "6343": " minerals",
    "6344": "araway",
    "6345": " thorn",
    "6346": "ody",
    "6347": " ast",
    "6348": " faraway",
    "6349": " glasses",
    "6350": " Foxy",
    "6351": " Get",
    "6352": " Sure",
    "6353": " Two",
    "6354": " Welcome",
    "6355": " swooped",
    "6356": " unf",
    "6357": " forks",
    "6358": " usual",
    "6359": " usually",
    "6360": "Polly",
    "6361": " Jamie",
    "6362": " dar",
    "6363": " sneezing",
    "6364": " winked",
    "6365": " solut",
    "6366": " loading",
    "6367": " sponge",
    "6368": " Quick",
    "6369": " insects",
    "6370": " pans",
    "6371": "Dog",
    "6372": " Santa",
    "6373": " sobbed",
    "6374": " growling",
    "6375": "James",
    "6376": " Chloe",
    "6377": " throat",
    "6378": "arter",
    "6379": " Josh",
    "6380": " noses",
    "6381": "sm",
    "6382": " Dizzy",
    "6383": " confident",
    "6384": " scarves",
    "6385": " Want",
    "6386": " yourselves",
    "6387": "agull",
    "6388": " homework",
    "6389": " Stay",
    "6390": " superheroes",
    "6391": "Joey",
    "6392": " smarter",
    "6393": " windy",
    "6394": " librarian",
    "6395": " Kids",
    "6396": "Tina",
    "6397": " gems",
    "6398": "Days",
    "6399": "ora",
    "6400": " underneath",
    "6401": " kicks",
    "6402": " knowled",
    "6403": " itchy",
    "6404": " jackets",
    "6405": " knowledge",
    "6406": " For",
    "6407": " Skelly",
    "6408": " surface",
    "6409": " untie",
    "6410": " comm",
    "6411": " Duck",
    "6412": " princesses",
    "6413": "Those",
    "6414": "...\"",
    "6415": "Hold",
    "6416": "Yeah",
    "6417": "coon",
    "6418": "ido",
    "6419": " squares",
    "6420": " Henny",
    "6421": " giggling",
    "6422": " warnings",
    "6423": " reads",
    "6424": "iar",
    "6425": "Our",
    "6426": " choo",
    "6427": " younger",
    "6428": "uced",
    "6429": " clowns",
    "6430": " Mix",
    "6431": "Toby",
    "6432": " ropes",
    "6433": " biting",
    "6434": " crowd",
    "6435": " Unfortunately",
    "6436": "Danny",
    "6437": "pite",
    "6438": " seagull",
    "6439": "True",
    "6440": " paddled",
    "6441": " wears",
    "6442": " delivered",
    "6443": " Mon",
    "6444": " buzzed",
    "6445": " twirl",
    "6446": " complained",
    "6447": " bumpy",
    "6448": " stem",
    "6449": "Ew",
    "6450": " piggy",
    "6451": "Mrs",
    "6452": " Anne",
    "6453": " direction",
    "6454": " dived",
    "6455": "ouch",
    "6456": " startled",
    "6457": " tangled",
    "6458": "Roar",
    "6459": "ults",
    "6460": " leaning",
    "6461": " Ant",
    "6462": "bbie",
    "6463": "son",
    "6464": " Jones",
    "6465": " badge",
    "6466": " Po",
    "6467": "Grace",
    "6468": " deal",
    "6469": "though",
    "6470": "Annie",
    "6471": " vowed",
    "6472": " napkins",
    "6473": " risk",
    "6474": " tickled",
    "6475": "anes",
    "6476": " covers",
    "6477": " pec",
    "6478": " yells",
    "6479": "Shh",
    "6480": " satisfied",
    "6481": " knocks",
    "6482": " Sc",
    "6483": "tuce",
    "6484": "cuse",
    "6485": " arrows",
    "6486": " cous",
    "6487": "Maggie",
    "6488": "Pe",
    "6489": " Whistle",
    "6490": " wipes",
    "6491": " speaking",
    "6492": " guessing",
    "6493": " lettuce",
    "6494": "Unfortunately",
    "6495": " Susan",
    "6496": " ripe",
    "6497": " Dodo",
    "6498": " Quack",
    "6499": " choices",
    "6500": " hides",
    "6501": " Rover",
    "6502": " signed",
    "6503": " slower",
    "6504": " seeker",
    "6505": "vin",
    "6506": " introduced",
    "6507": "Buzz",
    "6508": " creating",
    "6509": " singer",
    "6510": "int",
    "6511": " Matt",
    "6512": " cent",
    "6513": " froze",
    "6514": "uggles",
    "6515": " joked",
    "6516": " squeal",
    "6517": " explorers",
    "6518": " toaster",
    "6519": " avo",
    "6520": "anging",
    "6521": " praying",
    "6522": "Sophie",
    "6523": " discovering",
    "6524": " written",
    "6525": " Dara",
    "6526": " provided",
    "6527": " Lion",
    "6528": " refle",
    "6529": "Excuse",
    "6530": " Jeff",
    "6531": " mushrooms",
    "6532": " Paws",
    "6533": " knees",
    "6534": " paying",
    "6535": " hider",
    "6536": "fit",
    "6537": " Ash",
    "6538": " wandering",
    "6539": "aser",
    "6540": " images",
    "6541": "Charlie",
    "6542": " stung",
    "6543": " Wink",
    "6544": " barely",
    "6545": " magnets",
    "6546": " behaving",
    "6547": " tipto",
    "6548": " marked",
    "6549": "?\",",
    "6550": "brush",
    "6551": " restored",
    "6552": " leading",
    "6553": " Dee",
    "6554": " chuck",
    "6555": "lled",
    "6556": " greet",
    "6557": " nine",
    "6558": "ados",
    "6559": "Teddy",
    "6560": " bravery",
    "6561": " gears",
    "6562": " Snuggles",
    "6563": " competition",
    "6564": "ky",
    "6565": " outfit",
    "6566": "eal",
    "6567": "oline",
    "6568": " properly",
    "6569": " wishing",
    "6570": " ventured",
    "6571": " chat",
    "6572": " dances",
    "6573": " muscle",
    "6574": "tle",
    "6575": " er",
    "6576": " pens",
    "6577": " salty",
    "6578": "quence",
    "6579": "amb",
    "6580": " Betsy",
    "6581": " Ziggy",
    "6582": " pleas",
    "6583": " ranger",
    "6584": " deserve",
    "6585": " however",
    "6586": " matters",
    "6587": " darkness",
    "6588": " Fu",
    "6589": " burst",
    "6590": " cobwebs",
    "6591": " rainy",
    "6592": " chefs",
    "6593": " bak",
    "6594": " blocking",
    "6595": " conse",
    "6596": " consequence",
    "6597": "itely",
    "6598": "usted",
    "6599": " scur",
    "6600": "sty",
    "6601": " vines",
    "6602": "aa",
    "6603": " fab",
    "6604": " fabric",
    "6605": "abel",
    "6606": " basement",
    "6607": " entire",
    "6608": " least",
    "6609": " performed",
    "6610": " Buggy",
    "6611": "Sn",
    "6612": " scratches",
    "6613": " heavier",
    "6614": " Claire",
    "6615": " mints",
    "6616": " avocados",
    "6617": " twirling",
    "6618": "However",
    "6619": " Linda",
    "6620": "rink",
    "6621": "fl",
    "6622": " losing",
    "6623": " scurried",
    "6624": " Jenna",
    "6625": " sunflowers",
    "6626": " rainco",
    "6627": " swords",
    "6628": " click",
    "6629": " Laser",
    "6630": "agic",
    "6631": " jobs",
    "6632": " silent",
    "6633": "Tweet",
    "6634": " flames",
    "6635": " necklaces",
    "6636": " Luke",
    "6637": " Grumpy",
    "6638": " relief",
    "6639": " rotting",
    "6640": " sewed",
    "6641": " snat",
    "6642": " tricky",
    "6643": "Follow",
    "6644": "Listen",
    "6645": "Jerry",
    "6646": " lighter",
    "6647": "ophia",
    "6648": " Skip",
    "6649": " bows",
    "6650": " exha",
    "6651": " consequences",
    "6652": " solution",
    "6653": "Alex",
    "6654": " Lena",
    "6655": " Pr",
    "6656": " tires",
    "6657": "Beep",
    "6658": " unpacked",
    "6659": " races",
    "6660": "rance",
    "6661": " bumps",
    "6662": " pins",
    "6663": " wraps",
    "6664": " stain",
    "6665": "inkled",
    "6666": " backed",
    "6667": " decorating",
    "6668": " wow",
    "6669": "aisies",
    "6670": "cher",
    "6671": " dentist",
    "6672": " cautiously",
    "6673": " needles",
    "6674": " purr",
    "6675": " lifting",
    "6676": "izzie",
    "6677": " accomplish",
    "6678": " daisies",
    "6679": " triangles",
    "6680": " annoy",
    "6681": " hesitated",
    "6682": "ept",
    "6683": " Those",
    "6684": " growls",
    "6685": " crackers",
    "6686": "oke",
    "6687": " stomped",
    "6688": " cott",
    "6689": " grabbing",
    "6690": " bodies",
    "6691": " figured",
    "6692": " mater",
    "6693": " Tree",
    "6694": " buying",
    "6695": " Fido",
    "6696": " Rolly",
    "6697": " material",
    "6698": " Adam",
    "6699": " swans",
    "6700": " ties",
    "6701": " gri",
    "6702": " grows",
    "6703": " El",
    "6704": " sweets",
    "6705": " Goodbye",
    "6706": " cheeks",
    "6707": " flavor",
    "6708": " owners",
    "6709": " Cathy",
    "6710": " Jessie",
    "6711": " suffering",
    "6712": "Big",
    "6713": " fact",
    "6714": "vroom",
    "6715": " groups",
    "6716": " forehead",
    "6717": "bly",
    "6718": " lungs",
    "6719": "Harry",
    "6720": " bakery",
    "6721": " interested",
    "6722": " Milo",
    "6723": " freed",
    "6724": "Lilly",
    "6725": "len",
    "6726": " Nothing",
    "6727": "itches",
    "6728": " \n ",
    "6729": " chuckled",
    "6730": "For",
    "6731": " swept",
    "6732": " exhausted",
    "6733": " thud",
    "6734": "?'",
    "6735": " tapped",
    "6736": "Tw",
    "6737": " repa",
    "6738": "Ru",
    "6739": " nect",
    "6740": " nectar",
    "6741": "rosty",
    "6742": "elle",
    "6743": " feast",
    "6744": " darling",
    "6745": "indr",
    "6746": " Mad",
    "6747": " worries",
    "6748": " fuzzy",
    "6749": " tunnels",
    "6750": " Trust",
    "6751": " reason",
    "6752": " repaired",
    "6753": " Ball",
    "6754": " Copper",
    "6755": " uns",
    "6756": " activities",
    "6757": " Hannah",
    "6758": " pecked",
    "6759": "lets",
    "6760": " Try",
    "6761": " entrance",
    "6762": " Listen",
    "6763": " meals",
    "6764": " raindr",
    "6765": " completely",
    "6766": " mailed",
    "6767": " nests",
    "6768": " cuddly",
    "6769": " waiter",
    "6770": " sense",
    "6771": " Nana",
    "6772": "Que",
    "6773": " colored",
    "6774": "ctions",
    "6775": " leap",
    "6776": "arky",
    "6777": " peeking",
    "6778": " plenty",
    "6779": "band",
    "6780": "step",
    "6781": " Cara",
    "6782": " slammed",
    "6783": "no",
    "6784": " players",
    "6785": " Birthday",
    "6786": " budge",
    "6787": " month",
    "6788": " scra",
    "6789": " forgets",
    "6790": " den",
    "6791": " Oliver",
    "6792": " handful",
    "6793": "ossible",
    "6794": " genie",
    "6795": " Christ",
    "6796": " stool",
    "6797": "iggie",
    "6798": " Pup",
    "6799": " talks",
    "6800": " Suzie",
    "6801": " feeding",
    "6802": " passports",
    "6803": " films",
    "6804": " baths",
    "6805": " impossible",
    "6806": " determination",
    "6807": "May",
    "6808": " designed",
    "6809": "boat",
    "6810": " buses",
    "6811": " opp",
    "6812": " bars",
    "6813": " suitcase",
    "6814": "Queen",
    "6815": "lephant",
    "6816": " counts",
    "6817": " stolen",
    "6818": " Snap",
    "6819": " spikes",
    "6820": " spreading",
    "6821": " steer",
    "6822": " wiping",
    "6823": " Rain",
    "6824": " lamb",
    "6825": " honked",
    "6826": "etty",
    "6827": " cowb",
    "6828": "nies",
    "6829": "Whee",
    "6830": " separated",
    "6831": "blings",
    "6832": " siblings",
    "6833": " hops",
    "6834": " chop",
    "6835": " fever",
    "6836": " Twinkle",
    "6837": " fires",
    "6838": " mer",
    "6839": " sewing",
    "6840": " twinkle",
    "6841": " ty",
    "6842": " camping",
    "6843": " Mira",
    "6844": " lower",
    "6845": " changing",
    "6846": " behavi",
    "6847": "retch",
    "6848": "yes",
    "6849": " Bloom",
    "6850": " celebration",
    "6851": " liqu",
    "6852": "mas",
    "6853": " dollhouse",
    "6854": " squealed",
    "6855": "Sunny",
    "6856": " backward",
    "6857": " age",
    "6858": " snatched",
    "6859": " cash",
    "6860": " twice",
    "6861": "ho",
    "6862": " sway",
    "6863": "lee",
    "6864": "itched",
    "6865": " celebrating",
    "6866": " Peanut",
    "6867": " ache",
    "6868": " kings",
    "6869": "weed",
    "6870": "rious",
    "6871": " kittens",
    "6872": " shops",
    "6873": " Jacob",
    "6874": " Jessica",
    "6875": "Rose",
    "6876": "cope",
    "6877": " Gina",
    "6878": "aura",
    "6879": " hus",
    "6880": " touches",
    "6881": "but",
    "6882": " pancakes",
    "6883": "airy",
    "6884": " avoid",
    "6885": " spat",
    "6886": " Frosty",
    "6887": " Nina",
    "6888": "hog",
    "6889": " paths",
    "6890": " Hold",
    "6891": "cky",
    "6892": " calmed",
    "6893": " rotten",
    "6894": "ives",
    "6895": " dropping",
    "6896": " seaweed",
    "6897": "Sandy",
    "6898": " Mel",
    "6899": " stroked",
    "6900": " twisting",
    "6901": "Pipp",
    "6902": "iles",
    "6903": "river",
    "6904": " Jon",
    "6905": "ne",
    "6906": " Re",
    "6907": " untied",
    "6908": " playhouse",
    "6909": "llen",
    "6910": "Millie",
    "6911": " puppies",
    "6912": " students",
    "6913": " astron",
    "6914": " screws",
    "6915": "hi",
    "6916": " somebody",
    "6917": " liquid",
    "6918": "igning",
    "6919": " squish",
    "6920": " wakes",
    "6921": "ammy",
    "6922": " Woof",
    "6923": " astronaut",
    "6924": " bracelets",
    "6925": " thrown",
    "6926": "aren",
    "6927": "immer",
    "6928": " loops",
    "6929": " Other",
    "6930": " plain",
    "6931": " wrapping",
    "6932": "Luckily",
    "6933": " planning",
    "6934": " tramp",
    "6935": " aimed",
    "6936": " skunk",
    "6937": " pennies",
    "6938": " shoo",
    "6939": " dancers",
    "6940": " lifts",
    "6941": " firefly",
    "6942": " sparks",
    "6943": "pen",
    "6944": "Dan",
    "6945": " poster",
    "6946": " Christmas",
    "6947": " cust",
    "6948": "endy",
    "6949": "yan",
    "6950": " insist",
    "6951": " objects",
    "6952": " rewarded",
    "6953": " directions",
    "6954": "ingo",
    "6955": "using",
    "6956": " husband",
    "6957": " reflection",
    "6958": "Take",
    "6959": " clues",
    "6960": "uppy",
    "6961": "rig",
    "6962": " leads",
    "6963": " increased",
    "6964": " blocked",
    "6965": " rising",
    "6966": " Yesterday",
    "6967": " cousin",
    "6968": " dod",
    "6969": " Without",
    "6970": " forgetting",
    "6971": " custom",
    "6972": "rigued",
    "6973": "Kate",
    "6974": "ude",
    "6975": " trampoline",
    "6976": " pouted",
    "6977": " storekeeper",
    "6978": " zebras",
    "6979": " aff",
    "6980": " hedgehog",
    "6981": " \u2018",
    "6982": " Rollie",
    "6983": " borrowed",
    "6984": " snowfl",
    "6985": " countryside",
    "6986": " Jay",
    "6987": " mesmer",
    "6988": "Jump",
    "6989": " vehicles",
    "6990": " instrum",
    "6991": " Kayla",
    "6992": " Mic",
    "6993": " Up",
    "6994": " frowning",
    "6995": "Pat",
    "6996": " marker",
    "6997": " Queen",
    "6998": " bey",
    "6999": " beyond",
    "7000": " presses",
    "7001": " Only",
    "7002": " damage",
    "7003": "cl",
    "7004": " Biggie",
    "7005": " Tara",
    "7006": " fart",
    "7007": "ivery",
    "7008": "iece",
    "7009": "jo",
    "7010": " health",
    "7011": " nibb",
    "7012": " slips",
    "7013": " swimsuit",
    "7014": " whispers",
    "7015": " Julia",
    "7016": " flapping",
    "7017": " warmer",
    "7018": "armer",
    "7019": " tiptoed",
    "7020": " Robo",
    "7021": " laying",
    "7022": "Zip",
    "7023": "itted",
    "7024": " yelp",
    "7025": "ades",
    "7026": " everybody",
    "7027": " glued",
    "7028": " rains",
    "7029": " Fire",
    "7030": " creations",
    "7031": "ivity",
    "7032": " hearing",
    "7033": " colder",
    "7034": " swir",
    "7035": "iversity",
    "7036": "ael",
    "7037": " Elephant",
    "7038": " shaped",
    "7039": " fins",
    "7040": " streets",
    "7041": " cushions",
    "7042": " rusty",
    "7043": "Out",
    "7044": " san",
    "7045": " farthest",
    "7046": " Mikey",
    "7047": " creativity",
    "7048": " sale",
    "7049": "Always",
    "7050": "Under",
    "7051": " strongest",
    "7052": " Sparky",
    "7053": " fits",
    "7054": "ibbit",
    "7055": " bells",
    "7056": "ans",
    "7057": " Larry",
    "7058": " dollars",
    "7059": " earn",
    "7060": " Chirp",
    "7061": " Moon",
    "7062": " lending",
    "7063": "angle",
    "7064": "iam",
    "7065": " cashier",
    "7066": " conn",
    "7067": "Milly",
    "7068": " Rich",
    "7069": " raincoat",
    "7070": " sank",
    "7071": " sniffs",
    "7072": "eese",
    "7073": " stopping",
    "7074": " trembled",
    "7075": " source",
    "7076": "iti",
    "7077": " Missy",
    "7078": "imon",
    "7079": " inde",
    "7080": " indeed",
    "7081": " wobbly",
    "7082": "ters",
    "7083": " guests",
    "7084": " single",
    "7085": " recommended",
    "7086": " spells",
    "7087": " accomplishment",
    "7088": " belts",
    "7089": " ends",
    "7090": " surprising",
    "7091": " hopeful",
    "7092": " seasons",
    "7093": " Snowman",
    "7094": " Take",
    "7095": " Els",
    "7096": " plans",
    "7097": "ichael",
    "7098": " supported",
    "7099": " artist",
    "7100": " suffered",
    "7101": "illed",
    "7102": "stick",
    "7103": " encourag",
    "7104": " performance",
    "7105": " slowed",
    "7106": "Nina",
    "7107": "eet",
    "7108": " gross",
    "7109": " flavors",
    "7110": " spins",
    "7111": "iding",
    "7112": "Bear",
    "7113": "cho",
    "7114": " labels",
    "7115": " delivery",
    "7116": " raindrops",
    "7117": "arac",
    "7118": " forgiving",
    "7119": " raccoon",
    "7120": "Quack",
    "7121": "obody",
    "7122": " pours",
    "7123": " stands",
    "7124": " turtles",
    "7125": " vanilla",
    "7126": "the",
    "7127": "Bill",
    "7128": "ility",
    "7129": " Woo",
    "7130": "uess",
    "7131": " beam",
    "7132": " recipe",
    "7133": " tying",
    "7134": " geese",
    "7135": " drawn",
    "7136": " robber",
    "7137": " willing",
    "7138": " wept",
    "7139": "Vroom",
    "7140": " Bones",
    "7141": " charac",
    "7142": " Sophia",
    "7143": " corners",
    "7144": " pops",
    "7145": " queens",
    "7146": "elia",
    "7147": " die",
    "7148": " grip",
    "7149": " sailboat",
    "7150": " drivers",
    "7151": "itude",
    "7152": " hallway",
    "7153": " seconds",
    "7154": " Fuzzy",
    "7155": " moo",
    "7156": " preparing",
    "7157": "Mine",
    "7158": " widened",
    "7159": " adult",
    "7160": " Spirit",
    "7161": " coop",
    "7162": " grocer",
    "7163": " talented",
    "7164": " Beaky",
    "7165": " Pam",
    "7166": " Izzy",
    "7167": " sailors",
    "7168": "ummies",
    "7169": " aside",
    "7170": " softer",
    "7171": "lling",
    "7172": " watering",
    "7173": " knots",
    "7174": " sending",
    "7175": " tipped",
    "7176": " unsure",
    "7177": " horiz",
    "7178": " treehouse",
    "7179": "Lulu",
    "7180": " Lizzie",
    "7181": " notes",
    "7182": " echo",
    "7183": "Co",
    "7184": " achieved",
    "7185": "igers",
    "7186": " horizon",
    "7187": " delivering",
    "7188": " squeak",
    "7189": " Stella",
    "7190": " hotter",
    "7191": " pleasure",
    "7192": " pupils",
    "7193": "Clara",
    "7194": " burrow",
    "7195": " angels",
    "7196": " curiously",
    "7197": " yum",
    "7198": "Ellie",
    "7199": " June",
    "7200": " Stretch",
    "7201": " symbols",
    "7202": " tweet",
    "7203": " Cindy",
    "7204": " Rudy",
    "7205": " passen",
    "7206": "wk",
    "7207": " tummies",
    "7208": " det",
    "7209": " figures",
    "7210": " pigeons",
    "7211": " tiss",
    "7212": "umbling",
    "7213": " Robert",
    "7214": " bandages",
    "7215": " Doctor",
    "7216": " coup",
    "7217": " Sw",
    "7218": " robots",
    "7219": "ertain",
    "7220": "oey",
    "7221": " tossed",
    "7222": "alph",
    "7223": " backwards",
    "7224": " hour",
    "7225": "eds",
    "7226": " roars",
    "7227": " merma",
    "7228": "Baby",
    "7229": "driver",
    "7230": " rather",
    "7231": "atur",
    "7232": "Ab",
    "7233": "Maria",
    "7234": "cited",
    "7235": " Crab",
    "7236": " Play",
    "7237": "Dolly",
    "7238": "ighting",
    "7239": "uzz",
    "7240": " groceries",
    "7241": " zipping",
    "7242": "Put",
    "7243": " unw",
    "7244": "Very",
    "7245": " among",
    "7246": " icing",
    "7247": " blown",
    "7248": " afterwards",
    "7249": " rumble",
    "7250": "!\u201d.",
    "7251": " screwdriver",
    "7252": "ipper",
    "7253": " Tia",
    "7254": " Titi",
    "7255": " glee",
    "7256": " prove",
    "7257": " sped",
    "7258": "ushing",
    "7259": " dip",
    "7260": " overcome",
    "7261": "Quick",
    "7262": "Ruby",
    "7263": " surfboard",
    "7264": " shovels",
    "7265": " Toot",
    "7266": " slices",
    "7267": " merry",
    "7268": " mate",
    "7269": " wobble",
    "7270": " Abbie",
    "7271": " Turt",
    "7272": " disturbing",
    "7273": " heading",
    "7274": " firefighters",
    "7275": " reversed",
    "7276": " swall",
    "7277": " swallowed",
    "7278": "Jul",
    "7279": " chip",
    "7280": " flipped",
    "7281": " scored",
    "7282": " Jump",
    "7283": " squeezing",
    "7284": "Frank",
    "7285": "usty",
    "7286": " waking",
    "7287": "Su",
    "7288": "aty",
    "7289": " intrigued",
    "7290": "Sad",
    "7291": "prin",
    "7292": " maker",
    "7293": "Like",
    "7294": " Barky",
    "7295": " puff",
    "7296": "Betty",
    "7297": "awn",
    "7298": " hawk",
    "7299": " encouraging",
    "7300": " aud",
    "7301": " Ron",
    "7302": " chos",
    "7303": " chosen",
    "7304": "onies",
    "7305": "hew",
    "7306": " Ang",
    "7307": " Farmer",
    "7308": " Ex",
    "7309": " couple",
    "7310": " designs",
    "7311": " slipping",
    "7312": " Emmy",
    "7313": " squishy",
    "7314": " center",
    "7315": " gardener",
    "7316": " rivers",
    "7317": " markers",
    "7318": " respond",
    "7319": " jars",
    "7320": " tigers",
    "7321": "iley",
    "7322": " frowns",
    "7323": " Kit",
    "7324": " Sadly",
    "7325": " fluttered",
    "7326": "bird",
    "7327": " Ryan",
    "7328": " Sl",
    "7329": " firefighter",
    "7330": "Ribbit",
    "7331": " secure",
    "7332": " suits",
    "7333": " sprinkled",
    "7334": " creamy",
    "7335": " bru",
    "7336": " ignoring",
    "7337": " sharks",
    "7338": "ashes",
    "7339": " giggles",
    "7340": " tighter",
    "7341": " tissue",
    "7342": "Car",
    "7343": " firmly",
    "7344": " Laura",
    "7345": "ounce",
    "7346": " familiar",
    "7347": " shown",
    "7348": " thorns",
    "7349": "fly",
    "7350": "Spike",
    "7351": "ae",
    "7352": " drawers",
    "7353": " Zee",
    "7354": " def",
    "7355": " audience",
    "7356": " crossing",
    "7357": " daring",
    "7358": " express",
    "7359": " cloudy",
    "7360": " coloured",
    "7361": " performing",
    "7362": " Nick",
    "7363": " ais",
    "7364": "child",
    "7365": " mixture",
    "7366": "Get",
    "7367": " gracefully",
    "7368": " til",
    "7369": "ggy",
    "7370": " haircuts",
    "7371": " yielded",
    "7372": " ponies",
    "7373": " crowns",
    "7374": " disob",
    "7375": " shin",
    "7376": " bits",
    "7377": " Sleep",
    "7378": " todd",
    "7379": " hangers",
    "7380": " nervously",
    "7381": " Patch",
    "7382": "bbled",
    "7383": " 2",
    "7384": " pays",
    "7385": "Zoomy",
    "7386": " peck",
    "7387": " Wo",
    "7388": " ev",
    "7389": " stroke",
    "7390": "Bang",
    "7391": "fall",
    "7392": "ments",
    "7393": " napped",
    "7394": " respected",
    "7395": "aven",
    "7396": " minded",
    "7397": "pecting",
    "7398": "Bessie",
    "7399": "ddie",
    "7400": " tested",
    "7401": "Boys",
    "7402": "parent",
    "7403": " Chris",
    "7404": " Near",
    "7405": " University",
    "7406": "Kim",
    "7407": " beeh",
    "7408": " Turtle",
    "7409": "ably",
    "7410": " neighbours",
    "7411": " surfing",
    "7412": "arrow",
    "7413": " shady",
    "7414": "ading",
    "7415": " darl",
    "7416": " darlings",
    "7417": " enthusiasm",
    "7418": " magician",
    "7419": "iona",
    "7420": " wisely",
    "7421": " sails",
    "7422": " stitches",
    "7423": "Dear",
    "7424": " thoughts",
    "7425": " weekend",
    "7426": " Tweetie",
    "7427": "Freddy",
    "7428": " reminds",
    "7429": " temper",
    "7430": "oring",
    "7431": " fleas",
    "7432": " spits",
    "7433": " surroundings",
    "7434": "antha",
    "7435": "tha",
    "7436": " teams",
    "7437": " fills",
    "7438": " lessons",
    "7439": " Along",
    "7440": " flip",
    "7441": " melons",
    "7442": " paintbrush",
    "7443": " mermaid",
    "7444": "Katie",
    "7445": "lle",
    "7446": "oni",
    "7447": " grandchild",
    "7448": " elbow",
    "7449": " explo",
    "7450": " hoops",
    "7451": " sports",
    "7452": " Fighting",
    "7453": " lies",
    "7454": "Guess",
    "7455": " panicked",
    "7456": " amount",
    "7457": " cleaner",
    "7458": " longest",
    "7459": "cused",
    "7460": " scooters",
    "7461": " lent",
    "7462": " beloved",
    "7463": "immering",
    "7464": " beehive",
    "7465": "Pippin",
    "7466": "Alright",
    "7467": "ita",
    "7468": " sill",
    "7469": "oga",
    "7470": " grandparent",
    "7471": " oysters",
    "7472": " forgiven",
    "7473": " magazines",
    "7474": " Wise",
    "7475": " arr",
    "7476": " elf",
    "7477": " repeating",
    "7478": " discussed",
    "7479": " Thanks",
    "7480": " sweetest",
    "7481": " Maya",
    "7482": " wadd",
    "7483": "Keep",
    "7484": " Granny",
    "7485": " lace",
    "7486": " nightmares",
    "7487": " Willy",
    "7488": " tubes",
    "7489": " spoonful",
    "7490": " Zoey",
    "7491": " bathing",
    "7492": " nood",
    "7493": "asty",
    "7494": "Am",
    "7495": " manners",
    "7496": " sweep",
    "7497": " Holly",
    "7498": " bully",
    "7499": " nur",
    "7500": " sprang",
    "7501": "Uncle",
    "7502": "crow",
    "7503": " Yet",
    "7504": " guide",
    "7505": " crew",
    "7506": "ancy",
    "7507": "onna",
    "7508": " breathed",
    "7509": "Jazz",
    "7510": "ilda",
    "7511": "steps",
    "7512": "while",
    "7513": "ently",
    "7514": " Bally",
    "7515": " bulbs",
    "7516": " grassy",
    "7517": " neare",
    "7518": " spies",
    "7519": " testing",
    "7520": " wiggly",
    "7521": " coug",
    "7522": " sheets",
    "7523": " solving",
    "7524": " Roo",
    "7525": " footsteps",
    "7526": "cover",
    "7527": " speeding",
    "7528": "Afterwards",
    "7529": "ntil",
    "7530": " focused",
    "7531": "Moo",
    "7532": "ounced",
    "7533": "?!\"",
    "7534": "cept",
    "7535": " braver",
    "7536": " camel",
    "7537": " mesmerized",
    "7538": " Sparkle",
    "7539": " hesitant",
    "7540": " licking",
    "7541": " rushing",
    "7542": " Well",
    "7543": " Puppy",
    "7544": " Martha",
    "7545": " greeted",
    "7546": " polar",
    "7547": " Bubb",
    "7548": "--",
    "7549": "espite",
    "7550": " Nobody",
    "7551": " changes",
    "7552": " materials",
    "7553": " worn",
    "7554": "Kiki",
    "7555": "Which",
    "7556": "undred",
    "7557": " Ne",
    "7558": " bicycles",
    "7559": " stored",
    "7560": " anger",
    "7561": " mast",
    "7562": " peacefully",
    "7563": "Leave",
    "7564": " ships",
    "7565": " spice",
    "7566": " Show",
    "7567": " gonna",
    "7568": " nuzz",
    "7569": " terrified",
    "7570": " politely",
    "7571": " scarecrow",
    "7572": " spills",
    "7573": " knives",
    "7574": "Snow",
    "7575": " Mixy",
    "7576": " evil",
    "7577": " burying",
    "7578": "ppies",
    "7579": "ca",
    "7580": " aren",
    "7581": " healing",
    "7582": " aeroplanes",
    "7583": " donkey",
    "7584": "Even",
    "7585": "freeze",
    "7586": " miles",
    "7587": " scattering",
    "7588": " seals",
    "7589": " Chewy",
    "7590": " dump",
    "7591": "amboo",
    "7592": " Soft",
    "7593": " worrying",
    "7594": "zoom",
    "7595": " Lenny",
    "7596": " lever",
    "7597": "David",
    "7598": "beep",
    "7599": " puzzled",
    "7600": " stacked",
    "7601": " Kip",
    "7602": " Nice",
    "7603": "Penny",
    "7604": " loses",
    "7605": " baskets",
    "7606": " travelled",
    "7607": "dding",
    "7608": " Okay",
    "7609": " blast",
    "7610": " gazing",
    "7611": " Tess",
    "7612": "ipes",
    "7613": " temperature",
    "7614": "Hurry",
    "7615": "erm",
    "7616": " believing",
    "7617": " cor",
    "7618": " clue",
    "7619": " dripping",
    "7620": " reass",
    "7621": " tasting",
    "7622": " und",
    "7623": " 10",
    "7624": " rats",
    "7625": " soaking",
    "7626": "isc",
    "7627": " begin",
    "7628": " sandy",
    "7629": " Isn",
    "7630": "rect",
    "7631": " Simon",
    "7632": "anwhile",
    "7633": "rey",
    "7634": " Abi",
    "7635": " banged",
    "7636": " punishment",
    "7637": "Binky",
    "7638": " crashing",
    "7639": " humans",
    "7640": " Ana",
    "7641": " force",
    "7642": "aver",
    "7643": " gest",
    "7644": " hundred",
    "7645": " Lia",
    "7646": " Chess",
    "7647": " swimmer",
    "7648": " snowflakes",
    "7649": " relaxing",
    "7650": " Fairy",
    "7651": " beeped",
    "7652": " resisted",
    "7653": "Bee",
    "7654": " quarreled",
    "7655": " Wendy",
    "7656": " ramp",
    "7657": "elie",
    "7658": "form",
    "7659": " joins",
    "7660": " \n",
    "7661": " Ph",
    "7662": "abby",
    "7663": " delayed",
    "7664": " dressing",
    "7665": "years",
    "7666": " toddler",
    "7667": " Luckily",
    "7668": " Te",
    "7669": " covering",
    "7670": " flight",
    "7671": "ofia",
    "7672": " benches",
    "7673": "By",
    "7674": "Open",
    "7675": "Two",
    "7676": "orter",
    "7677": " scraped",
    "7678": " toward",
    "7679": " Judy",
    "7680": " focus",
    "7681": " purpose",
    "7682": " correct",
    "7683": "Bow",
    "7684": " lipstick",
    "7685": "'.\"",
    "7686": "een",
    "7687": " bamboo",
    "7688": " Cow",
    "7689": " months",
    "7690": " permitted",
    "7691": " potion",
    "7692": " twinkled",
    "7693": " languages",
    "7694": "Spe",
    "7695": " freedom",
    "7696": " orders",
    "7697": " master",
    "7698": " poppies",
    "7699": " risks",
    "7700": "Tony",
    "7701": " noodles",
    "7702": "shm",
    "7703": " faded",
    "7704": " wounds",
    "7705": "Kids",
    "7706": "shmallow",
    "7707": " Jojo",
    "7708": " birdhouse",
    "7709": " creams",
    "7710": " Herb",
    "7711": " annoyed",
    "7712": " cells",
    "7713": " adults",
    "7714": " cheers",
    "7715": " sniffing",
    "7716": "opes",
    "7717": " unwra",
    "7718": "Birdy",
    "7719": " floats",
    "7720": " opinions",
    "7721": " puck",
    "7722": "Buzzy",
    "7723": "ecca",
    "7724": "Instead",
    "7725": "andas",
    "7726": " flown",
    "7727": " handsome",
    "7728": " scen",
    "7729": " sneezes",
    "7730": " Mint",
    "7731": " nodding",
    "7732": " 5",
    "7733": " burnt",
    "7734": " smelling",
    "7735": " drifted",
    "7736": " within",
    "7737": "bage",
    "7738": " bothering",
    "7739": " damaged",
    "7740": " height",
    "7741": " scient",
    "7742": "ider",
    "7743": " instruments",
    "7744": " pleaded",
    "7745": " slither",
    "7746": " tearing",
    "7747": "uing",
    "7748": " Win",
    "7749": " ease",
    "7750": " Ali",
    "7751": " Marie",
    "7752": " scientist",
    "7753": "Back",
    "7754": "da",
    "7755": "Goodnight",
    "7756": "Mira",
    "7757": " pound",
    "7758": " handing",
    "7759": " seller",
    "7760": " Say",
    "7761": " germ",
    "7762": " files",
    "7763": " wasting",
    "7764": " dreamt",
    "7765": " results",
    "7766": " Mabel",
    "7767": " Ste",
    "7768": " brushing",
    "7769": " destroying",
    "7770": " explains",
    "7771": "bell",
    "7772": " Razor",
    "7773": " characters",
    "7774": " hiss",
    "7775": "gestion",
    "7776": "ousy",
    "7777": " Cr",
    "7778": " certain",
    "7779": "Carl",
    "7780": " suggestion",
    "7781": " Hug",
    "7782": " sweaty",
    "7783": "Behind",
    "7784": "Pandy",
    "7785": "unched",
    "7786": " Robbie",
    "7787": " business",
    "7788": " onward",
    "7789": " talents",
    "7790": " bravest",
    "7791": " engines",
    "7792": "Try",
    "7793": " Janie",
    "7794": " Pen",
    "7795": " sternly",
    "7796": "ition",
    "7797": " mosquitoes",
    "7798": " postman",
    "7799": " minds",
    "7800": " scares",
    "7801": " tuck",
    "7802": "cake",
    "7803": " apologised",
    "7804": " stomp",
    "7805": "urious",
    "7806": " manag",
    "7807": "uel",
    "7808": " bitten",
    "7809": " snuck",
    "7810": " decisions",
    "7811": " reminding",
    "7812": " switched",
    "7813": " tilted",
    "7814": "attered",
    "7815": " Poor",
    "7816": " behavior",
    "7817": " desper",
    "7818": " singers",
    "7819": "rier",
    "7820": " Judge",
    "7821": "ashing",
    "7822": "bbers",
    "7823": " peeled",
    "7824": " squeaked",
    "7825": "icip",
    "7826": " Everybody",
    "7827": " purrs",
    "7828": " yumm",
    "7829": " Bra",
    "7830": " Until",
    "7831": " displayed",
    "7832": " rustling",
    "7833": " smashed",
    "7834": " treated",
    "7835": " matey",
    "7836": " neatly",
    "7837": " Bess",
    "7838": " planting",
    "7839": " marshmallow",
    "7840": "inny",
    "7841": " bellies",
    "7842": " cooper",
    "7843": " cracks",
    "7844": " grandparents",
    "7845": " yelped",
    "7846": " Navy",
    "7847": " sy",
    "7848": " scamp",
    "7849": " shines",
    "7850": " coloring",
    "7851": " failed",
    "7852": " Se",
    "7853": " hoo",
    "7854": " Yoga",
    "7855": "prints",
    "7856": " Make",
    "7857": " zooms",
    "7858": " breathing",
    "7859": " nasty",
    "7860": "rup",
    "7861": " combed",
    "7862": " despite",
    "7863": " pandas",
    "7864": " address",
    "7865": " waterfall",
    "7866": "ighing",
    "7867": "line",
    "7868": "uffin",
    "7869": " Angel",
    "7870": " Loop",
    "7871": "cc",
    "7872": " robbers",
    "7873": " wider",
    "7874": "Tilly",
    "7875": " Todd",
    "7876": " doorway",
    "7877": " echoed",
    "7878": " sweaters",
    "7879": "Abigail",
    "7880": "Play",
    "7881": " edges",
    "7882": "evin",
    "7883": " Shadow",
    "7884": "Aunt",
    "7885": " Blinky",
    "7886": " disobey",
    "7887": " gap",
    "7888": " Michael",
    "7889": "Liz",
    "7890": "wise",
    "7891": " Flick",
    "7892": " tar",
    "7893": " magnif",
    "7894": " taped",
    "7895": "Wake",
    "7896": "omp",
    "7897": "orking",
    "7898": "oscope",
    "7899": " action",
    "7900": " flaps",
    "7901": " scolds",
    "7902": "father",
    "7903": "ulp",
    "7904": " Mindy",
    "7905": " crawls",
    "7906": " inj",
    "7907": " Gary",
    "7908": " backs",
    "7909": " gobbled",
    "7910": " swap",
    "7911": "Ros",
    "7912": " Eddie",
    "7913": " Fishy",
    "7914": " warri",
    "7915": " sever",
    "7916": " steth",
    "7917": " newspapers",
    "7918": " probably",
    "7919": " shinier",
    "7920": "Slow",
    "7921": " occ",
    "7922": " several",
    "7923": " Meg",
    "7924": " encount",
    "7925": "Lena",
    "7926": "Rock",
    "7927": "under",
    "7928": " connected",
    "7929": " plucked",
    "7930": " quieter",
    "7931": " serving",
    "7932": " ouch",
    "7933": " Share",
    "7934": "igger",
    "7935": " gesture",
    "7936": "Adam",
    "7937": "Ted",
    "7938": " doorbell",
    "7939": " plot",
    "7940": " student",
    "7941": "Too",
    "7942": " cares",
    "7943": " squaw",
    "7944": "Fl",
    "7945": " grandson",
    "7946": " rescuing",
    "7947": "fire",
    "7948": " goo",
    "7949": " rows",
    "7950": " simply",
    "7951": " spy",
    "7952": " whistles",
    "7953": "iel",
    "7954": "mies",
    "7955": " astronauts",
    "7956": " shorter",
    "7957": " snaps",
    "7958": "Magic",
    "7959": "Shrink",
    "7960": "vant",
    "7961": " Time",
    "7962": " cottage",
    "7963": " unpacking",
    "7964": " accidents",
    "7965": " swo",
    "7966": " Nut",
    "7967": " mood",
    "7968": " swollen",
    "7969": "ibi",
    "7970": "Steve",
    "7971": " Mousy",
    "7972": " Zippy",
    "7973": "abelle",
    "7974": " bothered",
    "7975": "Zara",
    "7976": "anie",
    "7977": " stethoscope",
    "7978": "Hannah",
    "7979": " causing",
    "7980": " trusting",
    "7981": "Mad",
    "7982": "Mat",
    "7983": "tock",
    "7984": " dresser",
    "7985": " leapt",
    "7986": " sou",
    "7987": "found",
    "7988": " pills",
    "7989": " proper",
    "7990": " insp",
    "7991": "aint",
    "7992": "retty",
    "7993": " Dina",
    "7994": " prayers",
    "7995": " runner",
    "7996": "Olive",
    "7997": " joyful",
    "7998": "Thomas",
    "7999": " Prince",
    "8000": " locks",
    "8001": " beaver",
    "8002": " goats",
    "8003": "Jamie",
    "8004": " target",
    "8005": "what",
    "8006": " Karen",
    "8007": " Wait",
    "8008": "mates",
    "8009": " Bang",
    "8010": " dears",
    "8011": " Cro",
    "8012": " flips",
    "8013": " munch",
    "8014": " waddled",
    "8015": "Red",
    "8016": "artled",
    "8017": " lowered",
    "8018": " stepping",
    "8019": " Jackie",
    "8020": " teachers",
    "8021": " Toys",
    "8022": " cowboy",
    "8023": " envelopes",
    "8024": " inches",
    "8025": " Vroom",
    "8026": " char",
    "8027": "ears",
    "8028": " anticip",
    "8029": " explorer",
    "8030": " Ralph",
    "8031": " Ruff",
    "8032": " Ready",
    "8033": " playd",
    "8034": " De",
    "8035": "Finn",
    "8036": "Nice",
    "8037": "unity",
    "8038": " Bad",
    "8039": " Pl",
    "8040": " efforts",
    "8041": " floors",
    "8042": " knocking",
    "8043": " uniforms",
    "8044": " Tri",
    "8045": "lied",
    "8046": " aware",
    "8047": "ening",
    "8048": " footprints",
    "8049": " Fiona",
    "8050": " nearly",
    "8051": "Someone",
    "8052": " Ria",
    "8053": "llas",
    "8054": " appreciation",
    "8055": " disc",
    "8056": " glitt",
    "8057": " trot",
    "8058": " whimp",
    "8059": "ivi",
    "8060": " sens",
    "8061": " checks",
    "8062": " collap",
    "8063": " necks",
    "8064": "oosh",
    "8065": " except",
    "8066": " lapt",
    "8067": " Jacky",
    "8068": " charge",
    "8069": " plug",
    "8070": " fluttering",
    "8071": " umbrellas",
    "8072": " Davey",
    "8073": " sandcastles",
    "8074": "acy",
    "8075": " Honey",
    "8076": " statues",
    "8077": " Amelia",
    "8078": " shrank",
    "8079": "Hoppy",
    "8080": "ails",
    "8081": "iscuit",
    "8082": "omb",
    "8083": " adds",
    "8084": " prick",
    "8085": " stamped",
    "8086": "rily",
    "8087": "rons",
    "8088": " chocolates",
    "8089": " dodged",
    "8090": " hunters",
    "8091": " stroll",
    "8092": " germs",
    "8093": " passengers",
    "8094": "oger",
    "8095": " aisle",
    "8096": " aprons",
    "8097": " wrigg",
    "8098": " sets",
    "8099": " Gerry",
    "8100": " novels",
    "8101": " weeds",
    "8102": "order",
    "8103": " Taking",
    "8104": " demanding",
    "8105": " meows",
    "8106": " scratching",
    "8107": " nurses",
    "8108": "issa",
    "8109": " discussing",
    "8110": " minding",
    "8111": ".'\"",
    "8112": "Lucky",
    "8113": " Cari",
    "8114": " driveway",
    "8115": " killed",
    "8116": "urrender",
    "8117": " becomes",
    "8118": " Eliz",
    "8119": " haird",
    "8120": " laptop",
    "8121": " toolbox",
    "8122": " Despite",
    "8123": " Sadie",
    "8124": " attack",
    "8125": "Speedy",
    "8126": " bounces",
    "8127": " scampered",
    "8128": " Gl",
    "8129": " deed",
    "8130": " sprays",
    "8131": " supplied",
    "8132": " tempt",
    "8133": "sol",
    "8134": " burns",
    "8135": " friendships",
    "8136": " closing",
    "8137": " slapping",
    "8138": "Coco",
    "8139": " anticipation",
    "8140": " belongings",
    "8141": " invites",
    "8142": "Dr",
    "8143": " Stan",
    "8144": " cotton",
    "8145": " erase",
    "8146": " form",
    "8147": " rays",
    "8148": " twists",
    "8149": " forgives",
    "8150": " snuggle",
    "8151": " models",
    "8152": " humming",
    "8153": " massages",
    "8154": " shall",
    "8155": " newfound",
    "8156": " responded",
    "8157": "onnie",
    "8158": " Shelly",
    "8159": " expecting",
    "8160": " ghosts",
    "8161": " cheated",
    "8162": " Wooly",
    "8163": "Does",
    "8164": "Gigi",
    "8165": " cons",
    "8166": " traveling",
    "8167": "otte",
    "8168": " although",
    "8169": " battle",
    "8170": " cond",
    "8171": " posit",
    "8172": " mommies",
    "8173": "alloween",
    "8174": " aim",
    "8175": " carries",
    "8176": " invitations",
    "8177": " presented",
    "8178": " Bumpy",
    "8179": " rowed",
    "8180": " twenty",
    "8181": "hel",
    "8182": " squir",
    "8183": "ots",
    "8184": " foxes",
    "8185": "arlotte",
    "8186": "rie",
    "8187": " duckling",
    "8188": " final",
    "8189": " Bibi",
    "8190": " cafe",
    "8191": "rest",
    "8192": " marshmallows",
    "8193": "Pip",
    "8194": " Zipper",
    "8195": " clicked",
    "8196": " designing",
    "8197": " jets",
    "8198": "oor",
    "8199": " Halloween",
    "8200": " Muffin",
    "8201": "five",
    "8202": " Whoever",
    "8203": " mugs",
    "8204": " Although",
    "8205": " drown",
    "8206": " Excited",
    "8207": " Ruth",
    "8208": " coral",
    "8209": " oppos",
    "8210": " tricycle",
    "8211": " Cle",
    "8212": "iens",
    "8213": " Maddie",
    "8214": " Pop",
    "8215": " scoops",
    "8216": "po",
    "8217": " \u2014",
    "8218": " aliens",
    "8219": " travels",
    "8220": "Sadly",
    "8221": "off",
    "8222": " Speed",
    "8223": " questioned",
    "8224": " tests",
    "8225": " craft",
    "8226": " strips",
    "8227": "inted",
    "8228": "Near",
    "8229": "Mouse",
    "8230": "atty",
    "8231": " Flutter",
    "8232": " defe",
    "8233": " Bubba",
    "8234": "covered",
    "8235": "Br",
    "8236": "ended",
    "8237": "iri",
    "8238": " fights",
    "8239": " Biggy",
    "8240": " opposite",
    "8241": "Ball",
    "8242": "roken",
    "8243": "Chloe",
    "8244": "Elly",
    "8245": "Find",
    "8246": " Fe",
    "8247": " Never",
    "8248": " afford",
    "8249": " encountered",
    "8250": " grandfather",
    "8251": " rout",
    "8252": "orse",
    "8253": " decl",
    "8254": " raising",
    "8255": " Vivi",
    "8256": " upside",
    "8257": " Rita",
    "8258": " calmly",
    "8259": " flashed",
    "8260": "Jess",
    "8261": "Meanwhile",
    "8262": " realizes",
    "8263": " sincere",
    "8264": " yawning",
    "8265": " Im",
    "8266": " Samantha",
    "8267": " buddy",
    "8268": " crystals",
    "8269": "Choo",
    "8270": "Trust",
    "8271": "aturday",
    "8272": " buckled",
    "8273": " cupcakes",
    "8274": " defin",
    "8275": " winners",
    "8276": "Both",
    "8277": "byes",
    "8278": "ris",
    "8279": "verse",
    "8280": " caw",
    "8281": " weapons",
    "8282": "',",
    "8283": " Saturday",
    "8284": " cheat",
    "8285": " packages",
    "8286": "Josh",
    "8287": "cted",
    "8288": "shadow",
    "8289": " attem",
    "8290": " coach",
    "8291": " goodbyes",
    "8292": " messes",
    "8293": " sacks",
    "8294": " Flo",
    "8295": " Truck",
    "8296": "iment",
    "8297": "quet",
    "8298": " Eva",
    "8299": " Mina",
    "8300": " caps",
    "8301": " drift",
    "8302": "val",
    "8303": " enem",
    "8304": " enemies",
    "8305": " scrub",
    "8306": " yummiest",
    "8307": "asha",
    "8308": " returning",
    "8309": " swallow",
    "8310": " Megan",
    "8311": " Softy",
    "8312": " admiration",
    "8313": "rian",
    "8314": " Louise",
    "8315": " sprout",
    "8316": "Since",
    "8317": " Another",
    "8318": " Playing",
    "8319": " unable",
    "8320": "onse",
    "8321": " Yawn",
    "8322": " bless",
    "8323": " brightest",
    "8324": " freezing",
    "8325": " sadder",
    "8326": "ugging",
    "8327": " Man",
    "8328": " Oh",
    "8329": " cosy",
    "8330": " response",
    "8331": "reverse",
    "8332": " bride",
    "8333": " diamonds",
    "8334": "ooks",
    "8335": " garbage",
    "8336": " honking",
    "8337": " opport",
    "8338": " reapp",
    "8339": "stalk",
    "8340": " prevented",
    "8341": " stretches",
    "8342": " whispering",
    "8343": " Gray",
    "8344": " awful",
    "8345": " odd",
    "8346": " whoever",
    "8347": "antastic",
    "8348": " awoke",
    "8349": " journeys",
    "8350": " weighs",
    "8351": "alth",
    "8352": " dragonfly",
    "8353": " spices",
    "8354": " traps",
    "8355": "erk",
    "8356": " born",
    "8357": "cie",
    "8358": " clip",
    "8359": " reassured",
    "8360": " argum",
    "8361": " beanstalk",
    "8362": " stall",
    "8363": "ivia",
    "8364": " Maisy",
    "8365": " automobiles",
    "8366": " beetles",
    "8367": " definitely",
    "8368": " playdate",
    "8369": " stuffing",
    "8370": " visitors",
    "8371": "Hop",
    "8372": "ici",
    "8373": "mine",
    "8374": " washes",
    "8375": "broken",
    "8376": " customer",
    "8377": " wiser",
    "8378": " Flop",
    "8379": " Jolly",
    "8380": " Sofia",
    "8381": " travelling",
    "8382": "Rachel",
    "8383": "emma",
    "8384": " Nurse",
    "8385": " bou",
    "8386": " bouquet",
    "8387": " hairdress",
    "8388": " Elle",
    "8389": " campfire",
    "8390": " decoration",
    "8391": " tumbled",
    "8392": ",'",
    "8393": "bble",
    "8394": " bud",
    "8395": " honesty",
    "8396": "chy",
    "8397": "uper",
    "8398": " bomb",
    "8399": "Only",
    "8400": "action",
    "8401": "ebecca",
    "8402": "vy",
    "8403": " offering",
    "8404": " welcoming",
    "8405": " Hello",
    "8406": " Jax",
    "8407": " Ot",
    "8408": " occas",
    "8409": " troubles",
    "8410": " wealth",
    "8411": " inspired",
    "8412": " loudest",
    "8413": " Chick",
    "8414": " groan",
    "8415": " parted",
    "8416": " type",
    "8417": " Nutty",
    "8418": " Ricky",
    "8419": " Thunder",
    "8420": " whales",
    "8421": "irac",
    "8422": "yl",
    "8423": " declared",
    "8424": " correctly",
    "8425": " Quacky",
    "8426": " beaks",
    "8427": "fus",
    "8428": "ooky",
    "8429": "yler",
    "8430": " cleared",
    "8431": "athan",
    "8432": " cowboys",
    "8433": " Dotty",
    "8434": " nuzzled",
    "8435": " exch",
    "8436": " prizes",
    "8437": " Missile",
    "8438": " warmly",
    "8439": "Finny",
    "8440": " customers",
    "8441": " obeyed",
    "8442": " rewards",
    "8443": " Fel",
    "8444": " comforting",
    "8445": " sirens",
    "8446": "Should",
    "8447": " Flappy",
    "8448": "shaped",
    "8449": " Bingo",
    "8450": " Magic",
    "8451": " conc",
    "8452": " towns",
    "8453": "match",
    "8454": " Vicky",
    "8455": " rely",
    "8456": "elieve",
    "8457": " bends",
    "8458": " fantastic",
    "8459": " owns",
    "8460": " trigger",
    "8461": "Honey",
    "8462": "romise",
    "8463": " hairdresser",
    "8464": " spoiling",
    "8465": " cleans",
    "8466": " pipes",
    "8467": " poses",
    "8468": " shares",
    "8469": " supporting",
    "8470": " surrendered",
    "8471": " Cook",
    "8472": " wrinkled",
    "8473": "Julie",
    "8474": "Outside",
    "8475": "Sun",
    "8476": "rench",
    "8477": " chopped",
    "8478": " beaming",
    "8479": " moons",
    "8480": " recorder",
    "8481": " Wolf",
    "8482": " snowy",
    "8483": " thanking",
    "8484": "Beth",
    "8485": "ellow",
    "8486": "unes",
    "8487": " active",
    "8488": " enjoyable",
    "8489": " experien",
    "8490": " scurry",
    "8491": " Piggy",
    "8492": " Kevin",
    "8493": " dollar",
    "8494": " loc",
    "8495": "elope",
    "8496": "worm",
    "8497": " Bub",
    "8498": " streamers",
    "8499": "Je",
    "8500": " Mother",
    "8501": " Patty",
    "8502": "udged",
    "8503": " Zack",
    "8504": " examp",
    "8505": "Suzy",
    "8506": " shooed",
    "8507": " shorts",
    "8508": "Tree",
    "8509": " bruises",
    "8510": " scent",
    "8511": " Luc",
    "8512": "uster",
    "8513": " hisses",
    "8514": "Bo",
    "8515": " Elsa",
    "8516": " plugged",
    "8517": " self",
    "8518": " steering",
    "8519": " warrior",
    "8520": "atitude",
    "8521": " exercises",
    "8522": " visits",
    "8523": " Ar",
    "8524": " Min",
    "8525": " Rel",
    "8526": " cuddles",
    "8527": " dangers",
    "8528": "aptain",
    "8529": "screen",
    "8530": "vinced",
    "8531": " signing",
    "8532": " squished",
    "8533": " unfortunately",
    "8534": "ative",
    "8535": " Light",
    "8536": " disappoint",
    "8537": " pilots",
    "8538": "Ray",
    "8539": "bee",
    "8540": " applauding",
    "8541": " gratitude",
    "8542": "munk",
    "8543": " Moppy",
    "8544": " providing",
    "8545": "alf",
    "8546": "irl",
    "8547": " Rub",
    "8548": " tickles",
    "8549": " Elsie",
    "8550": " badger",
    "8551": " convinced",
    "8552": " jud",
    "8553": " nights",
    "8554": " storms",
    "8555": "Grow",
    "8556": " Kelly",
    "8557": " choosing",
    "8558": " responsib",
    "8559": " youn",
    "8560": " activity",
    "8561": " brains",
    "8562": " nearest",
    "8563": " youngest",
    "8564": "Joy",
    "8565": " arranged",
    "8566": " coughed",
    "8567": " exploded",
    "8568": "Abby",
    "8569": "inger",
    "8570": " Fly",
    "8571": " rewarding",
    "8572": "Claire",
    "8573": " Floppy",
    "8574": " bond",
    "8575": " peep",
    "8576": " sunscreen",
    "8577": "erpiece",
    "8578": "good",
    "8579": " Joan",
    "8580": " Katy",
    "8581": " Sweet",
    "8582": " Tweety",
    "8583": "Mon",
    "8584": " Sal",
    "8585": " annoying",
    "8586": "ilities",
    "8587": " ill",
    "8588": " soapy",
    "8589": "Splash",
    "8590": "meow",
    "8591": "sn",
    "8592": " laces",
    "8593": " rails",
    "8594": " Pine",
    "8595": " appreciated",
    "8596": " offic",
    "8597": " tapping",
    "8598": " threads",
    "8599": " Phil",
    "8600": " Pick",
    "8601": " emerged",
    "8602": " heartbroken",
    "8603": " weighing",
    "8604": " Sil",
    "8605": " tin",
    "8606": "Danger",
    "8607": " clerk",
    "8608": " crocodiles",
    "8609": " Nancy",
    "8610": " attempt",
    "8611": " scram",
    "8612": "boards",
    "8613": " Any",
    "8614": " Kay",
    "8615": " dial",
    "8616": " example",
    "8617": " messed",
    "8618": " snug",
    "8619": "Ahoy",
    "8620": " Jonny",
    "8621": " hover",
    "8622": " hooks",
    "8623": "Momma",
    "8624": " chipmunk",
    "8625": " tops",
    "8626": " bathed",
    "8627": " guarding",
    "8628": " soot",
    "8629": " Tippy",
    "8630": " manager",
    "8631": " Microscope",
    "8632": "ortunately",
    "8633": "Friends",
    "8634": " masterpiece",
    "8635": "Snowy",
    "8636": "etah",
    "8637": " Tomorrow",
    "8638": " common",
    "8639": " fet",
    "8640": " finishes",
    "8641": " tips",
    "8642": "ending",
    "8643": " digs",
    "8644": " memb",
    "8645": " members",
    "8646": " nibbled",
    "8647": " trotted",
    "8648": "Hmm",
    "8649": " cheetah",
    "8650": " kinder",
    "8651": "People",
    "8652": " blond",
    "8653": " chews",
    "8654": " beast",
    "8655": " rips",
    "8656": "ircle",
    "8657": " argument",
    "8658": "Lizzy",
    "8659": " Helping",
    "8660": " faith",
    "8661": " earned",
    "8662": " Cici",
    "8663": " Joke",
    "8664": " forgiveness",
    "8665": " observing",
    "8666": "Anne",
    "8667": " Jumpy",
    "8668": " cheaper",
    "8669": " curl",
    "8670": " experienced",
    "8671": " fishes",
    "8672": " instantly",
    "8673": " mischie",
    "8674": " Twist",
    "8675": " cages",
    "8676": " generosity",
    "8677": " mischievous",
    "8678": "Gr",
    "8679": "Rosie",
    "8680": " foam",
    "8681": " meowing",
    "8682": " Ag",
    "8683": " grandd",
    "8684": " stores",
    "8685": "Cindy",
    "8686": "mered",
    "8687": " mattered",
    "8688": "etchup",
    "8689": " limp",
    "8690": " passes",
    "8691": " teles",
    "8692": " sleeps",
    "8693": " breaths",
    "8694": "iolet",
    "8695": " Freddie",
    "8696": " gasps",
    "8697": " rin",
    "8698": "Sque",
    "8699": "ettle",
    "8700": "ordinary",
    "8701": "pr",
    "8702": " Momma",
    "8703": " hatch",
    "8704": " rumbling",
    "8705": "Got",
    "8706": " Hopper",
    "8707": " accomplished",
    "8708": " grassho",
    "8709": " satisf",
    "8710": " mats",
    "8711": " smartest",
    "8712": " strum",
    "8713": " telescope",
    "8714": " thump",
    "8715": " trans",
    "8716": "acing",
    "8717": " moat",
    "8718": " whined",
    "8719": " Ice",
    "8720": " farmers",
    "8721": " jugg",
    "8722": " scrambled",
    "8723": "Gina",
    "8724": " drip",
    "8725": " More",
    "8726": " angrily",
    "8727": " collapsed",
    "8728": " gardens",
    "8729": " syrup",
    "8730": "Robbie",
    "8731": " discoveries",
    "8732": " experiences",
    "8733": " forests",
    "8734": " styles",
    "8735": " vegg",
    "8736": "idey",
    "8737": "ouraged",
    "8738": " affect",
    "8739": " medals",
    "8740": " tor",
    "8741": "hole",
    "8742": " Does",
    "8743": " conqu",
    "8744": " faint",
    "8745": " meaning",
    "8746": " otters",
    "8747": " types",
    "8748": " fif",
    "8749": " hardest",
    "8750": " snapping",
    "8751": "acock",
    "8752": "pit",
    "8753": " movements",
    "8754": " Pin",
    "8755": " bubbly",
    "8756": " chilly",
    "8757": " surv",
    "8758": " court",
    "8759": " expression",
    "8760": " unfair",
    "8761": " vests",
    "8762": "Pinky",
    "8763": " extraordinary",
    "8764": " scores",
    "8765": " toothbrush",
    "8766": "Whenever",
    "8767": " attitude",
    "8768": "Never",
    "8769": " Monkey",
    "8770": " bluebird",
    "8771": " horri",
    "8772": " vibr",
    "8773": " ketchup",
    "8774": " spears",
    "8775": "Mo",
    "8776": "lls",
    "8777": "mel",
    "8778": " Berry",
    "8779": "lo",
    "8780": " behaviour",
    "8781": " grasshopper",
    "8782": " sooner",
    "8783": "Mother",
    "8784": " habit",
    "8785": " patches",
    "8786": " Ashley",
    "8787": " afar",
    "8788": " momma",
    "8789": " pokes",
    "8790": "Karen",
    "8791": "erts",
    "8792": "yd",
    "8793": " Friend",
    "8794": " scri",
    "8795": " thie",
    "8796": " thicker",
    "8797": "Jacob",
    "8798": " icky",
    "8799": " Terry",
    "8800": " classmates",
    "8801": " shrunk",
    "8802": " slithered",
    "8803": " squeezes",
    "8804": " glittering",
    "8805": " prickly",
    "8806": " Tre",
    "8807": " expert",
    "8808": "Jon",
    "8809": " Riri",
    "8810": " announced",
    "8811": " kneeling",
    "8812": " topp",
    "8813": " marking",
    "8814": " peacock",
    "8815": "elling",
    "8816": " Achoo",
    "8817": " Cally",
    "8818": " Super",
    "8819": " costs",
    "8820": "ctric",
    "8821": " thieves",
    "8822": " watermel",
    "8823": " zigzags",
    "8824": " App",
    "8825": " Zog",
    "8826": " acts",
    "8827": " hood",
    "8828": " jumper",
    "8829": " skirts",
    "8830": " Cloud",
    "8831": " Swim",
    "8832": " wolves",
    "8833": " cocoon",
    "8834": " concer",
    "8835": " squeaky",
    "8836": " thumbs",
    "8837": "Papa",
    "8838": " Becky",
    "8839": " Eliza",
    "8840": " boards",
    "8841": " woodcut",
    "8842": " servant",
    "8843": "idence",
    "8844": " Jason",
    "8845": " cheating",
    "8846": "affle",
    "8847": " raking",
    "8848": " trading",
    "8849": "bu",
    "8850": " Eric",
    "8851": "Jessie",
    "8852": "cat",
    "8853": "ingly",
    "8854": " biscuit",
    "8855": " tidied",
    "8856": "rick",
    "8857": " luckily",
    "8858": " lunchtime",
    "8859": " Ac",
    "8860": " Puffy",
    "8861": "Frog",
    "8862": "anced",
    "8863": " spilling",
    "8864": " Day",
    "8865": " Animal",
    "8866": " Daniel",
    "8867": " Maddy",
    "8868": " Use",
    "8869": " desserts",
    "8870": " transform",
    "8871": "Fire",
    "8872": " Mine",
    "8873": " Pig",
    "8874": " Gill",
    "8875": " Still",
    "8876": "its",
    "8877": " Captain",
    "8878": " mirac",
    "8879": "amma",
    "8880": " Gilly",
    "8881": " Lung",
    "8882": " Tammy",
    "8883": " beating",
    "8884": " chill",
    "8885": " windowsill",
    "8886": "idy",
    "8887": " seeking",
    "8888": " Lina",
    "8889": " Rainbow",
    "8890": " actor",
    "8891": " William",
    "8892": " Math",
    "8893": "over",
    "8894": "sess",
    "8895": " foreshadow",
    "8896": "Any",
    "8897": "pril",
    "8898": " Hi",
    "8899": " Step",
    "8900": " leans",
    "8901": "Bluey",
    "8902": "acles",
    "8903": "oot",
    "8904": "war",
    "8905": " Frankie",
    "8906": " Monster",
    "8907": " Tiger",
    "8908": " cloths",
    "8909": " dev",
    "8910": " flashing",
    "8911": " hissing",
    "8912": " watermelon",
    "8913": "Bounce",
    "8914": "Freeze",
    "8915": " Wil",
    "8916": " discouraged",
    "8917": " funn",
    "8918": " positive",
    "8919": " winding",
    "8920": " compete",
    "8921": " dripped",
    "8922": " forts",
    "8923": " woodcutter",
    "8924": "pop",
    "8925": " disagreeing",
    "8926": " pressing",
    "8927": " teapot",
    "8928": " glimmering",
    "8929": "icking",
    "8930": " kangaroos",
    "8931": " tidying",
    "8932": " trusts",
    "8933": " veggies",
    "8934": " Peep",
    "8935": " Flora",
    "8936": " landing",
    "8937": " tempted",
    "8938": " dock",
    "8939": " formed",
    "8940": " shallow",
    "8941": " Tooth",
    "8942": " fade",
    "8943": " overw",
    "8944": " rack",
    "8945": "lers",
    "8946": " cops",
    "8947": " electric",
    "8948": "flowers",
    "8949": " apology",
    "8950": "Nothing",
    "8951": "eling",
    "8952": " Life",
    "8953": " Silver",
    "8954": " sleds",
    "8955": " worst",
    "8956": "ai",
    "8957": "creams",
    "8958": "iving",
    "8959": " ass",
    "8960": " comets",
    "8961": "upid",
    "8962": " Jelly",
    "8963": " Mag",
    "8964": " Shark",
    "8965": " sav",
    "8966": "Owl",
    "8967": " 4",
    "8968": " officers",
    "8969": " papa",
    "8970": " situations",
    "8971": "Bug",
    "8972": " Charlotte",
    "8973": " Roger",
    "8974": "Rain",
    "8975": " suns",
    "8976": "aye",
    "8977": " Butter",
    "8978": " miller",
    "8979": " overwhel",
    "8980": " pizzas",
    "8981": " scurrying",
    "8982": " structures",
    "8983": " zips",
    "8984": "\u201d,",
    "8985": " Amber",
    "8986": " Hurry",
    "8987": " Olivia",
    "8988": " ding",
    "8989": " foggy",
    "8990": " granddaughter",
    "8991": " Janey",
    "8992": "Zoe",
    "8993": " deserved",
    "8994": " webs",
    "8995": " Buster",
    "8996": " Mixie",
    "8997": " Sasha",
    "8998": " Spidey",
    "8999": " Yummy",
    "9000": " cubs",
    "9001": " opportunity",
    "9002": "Rabbit",
    "9003": "ering",
    "9004": " Gold",
    "9005": " differences",
    "9006": " rhino",
    "9007": " snorted",
    "9008": " Tell",
    "9009": " quacking",
    "9010": " Birds",
    "9011": " heaven",
    "9012": "Fifi",
    "9013": "ifully",
    "9014": " inchworm",
    "9015": " levers",
    "9016": " unlo",
    "9017": " Tyler",
    "9018": " approach",
    "9019": " Boom",
    "9020": " Felix",
    "9021": " Rufus",
    "9022": " cooperate",
    "9023": " pos",
    "9024": " possess",
    "9025": " seagulls",
    "9026": "?\u201d.",
    "9027": "ragon",
    "9028": "welcome",
    "9029": " Smoke",
    "9030": " disappointment",
    "9031": " pose",
    "9032": "andra",
    "9033": "storm",
    "9034": " binoc",
    "9035": " sneaks",
    "9036": " speaks",
    "9037": " artwork",
    "9038": " binocular",
    "9039": "sers",
    "9040": "snap",
    "9041": " Snake",
    "9042": " answering",
    "9043": " scowl",
    "9044": " surfed",
    "9045": " Grand",
    "9046": " shortcut",
    "9047": " robin",
    "9048": " sipped",
    "9049": " Inky",
    "9050": " arrest",
    "9051": "Climb",
    "9052": " Amanda",
    "9053": " amused",
    "9054": " reun",
    "9055": " ribbit",
    "9056": " unwrapped",
    "9057": "ssy",
    "9058": " applause",
    "9059": " pepperoni",
    "9060": " repeats",
    "9061": "ugar",
    "9062": " Cars",
    "9063": " Mae",
    "9064": " chin",
    "9065": " checkout",
    "9066": " keyhole",
    "9067": " paddling",
    "9068": " puppets",
    "9069": " striking",
    "9070": " visitor",
    "9071": "Deal",
    "9072": "Lia",
    "9073": " Brian",
    "9074": " Circle",
    "9075": " attacked",
    "9076": " croaked",
    "9077": " unz",
    "9078": "Eat",
    "9079": " Gus",
    "9080": " Otto",
    "9081": " spooky",
    "9082": "orsie",
    "9083": " Jean",
    "9084": " beautifully",
    "9085": " groaned",
    "9086": "Each",
    "9087": " checking",
    "9088": " consider",
    "9089": " swimsuits",
    "9090": "cidents",
    "9091": "sie",
    "9092": " Yellow",
    "9093": "uses",
    "9094": " Slinky",
    "9095": " Squeak",
    "9096": " groom",
    "9097": " waters",
    "9098": "jest",
    "9099": "yle",
    "9100": " ind",
    "9101": " exams",
    "9102": " nets",
    "9103": "Luke",
    "9104": " Rebecca",
    "9105": " drying",
    "9106": "ets",
    "9107": "otion",
    "9108": " Auntie",
    "9109": " lump",
    "9110": " shrugs",
    "9111": "agine",
    "9112": "anish",
    "9113": "artin",
    "9114": "udy",
    "9115": " Since",
    "9116": " cheerfully",
    "9117": " heels",
    "9118": " honks",
    "9119": " shoots",
    "9120": " shyly",
    "9121": " sobbing",
    "9122": "lest",
    "9123": " shh",
    "9124": "esses",
    "9125": "hny",
    "9126": "ili",
    "9127": " hangs",
    "9128": " healthier",
    "9129": " whimpered",
    "9130": " Mus",
    "9131": "Milo",
    "9132": "icious",
    "9133": " caterpillars",
    "9134": " Ratty",
    "9135": " fries",
    "9136": " magnifying",
    "9137": " squinted",
    "9138": "Slowly",
    "9139": "izzes",
    "9140": " Find",
    "9141": " blamed",
    "9142": " Tip",
    "9143": " frustration",
    "9144": " sculp",
    "9145": " sculpture",
    "9146": "gar",
    "9147": " March",
    "9148": " Penelope",
    "9149": " shimmering",
    "9150": "ouched",
    "9151": " Peace",
    "9152": " poss",
    "9153": " numbered",
    "9154": " suck",
    "9155": "Sharing",
    "9156": " Waffle",
    "9157": " nibble",
    "9158": " baa",
    "9159": " flowing",
    "9160": "amil",
    "9161": "ellie",
    "9162": "ibbles",
    "9163": "othy",
    "9164": " Off",
    "9165": " grumbled",
    "9166": " raked",
    "9167": "Pepper",
    "9168": "hings",
    "9169": " builder",
    "9170": "Bubbles",
    "9171": "that",
    "9172": " Woolly",
    "9173": " facing",
    "9174": " guards",
    "9175": " petting",
    "9176": " swaying",
    "9177": "eat",
    "9178": "racted",
    "9179": " Har",
    "9180": " details",
    "9181": " mysteries",
    "9182": " sprinkle",
    "9183": "sey",
    "9184": " Boat",
    "9185": " enemy",
    "9186": " flock",
    "9187": " snort",
    "9188": " Barry",
    "9189": " Curious",
    "9190": " goodies",
    "9191": " tablet",
    "9192": " textures",
    "9193": " popping",
    "9194": " wig",
    "9195": "Yesterday",
    "9196": " Baa",
    "9197": " Gracie",
    "9198": " Jenn",
    "9199": " countries",
    "9200": " crops",
    "9201": " fans",
    "9202": " marve",
    "9203": " stacks",
    "9204": " wildflowers",
    "9205": " Seeing",
    "9206": " Tessa",
    "9207": " knobs",
    "9208": " bushy",
    "9209": " local",
    "9210": "how",
    "9211": " Bubu",
    "9212": " angrier",
    "9213": " binoculars",
    "9214": " bowing",
    "9215": " drowned",
    "9216": " hunting",
    "9217": " peeped",
    "9218": " stew",
[...]
